{
  "vocab": {
    "<PAD>": 0,
    "<UNK>": 1,
    "<BOS>": 2,
    "<EOS>": 3,
    "\u0000": 4,
    "\u0001": 5,
    "\u0002": 6,
    "\u0003": 7,
    "\u0004": 8,
    "\u0005": 9,
    "\u0006": 10,
    "\u0007": 11,
    "\b": 12,
    "\t": 13,
    "\n": 14,
    "\f": 15,
    "\r": 16,
    "\u000e": 17,
    "\u000f": 18,
    "\u0010": 19,
    "\u0011": 20,
    "\u0012": 21,
    "\u0013": 22,
    "\u0014": 23,
    "\u0015": 24,
    "\u0016": 25,
    "\u0017": 26,
    "\u0018": 27,
    "\u0019": 28,
    "\u001a": 29,
    "\u001b": 30,
    "\u001c": 31,
    "\u001d": 32,
    "\u001e": 33,
    "\u001f": 34,
    " ": 35,
    "!": 36,
    "\"": 37,
    "#": 38,
    "$": 39,
    "%": 40,
    "&": 41,
    "'": 42,
    "(": 43,
    ")": 44,
    "*": 45,
    "+": 46,
    ",": 47,
    "-": 48,
    ".": 49,
    "/": 50,
    "0": 51,
    "1": 52,
    "2": 53,
    "3": 54,
    "4": 55,
    "5": 56,
    "6": 57,
    "7": 58,
    "8": 59,
    "9": 60,
    ":": 61,
    ";": 62,
    "<": 63,
    "=": 64,
    ">": 65,
    "?": 66,
    "@": 67,
    "A": 68,
    "B": 69,
    "C": 70,
    "D": 71,
    "E": 72,
    "F": 73,
    "G": 74,
    "H": 75,
    "I": 76,
    "J": 77,
    "K": 78,
    "L": 79,
    "M": 80,
    "N": 81,
    "O": 82,
    "P": 83,
    "Q": 84,
    "R": 85,
    "S": 86,
    "T": 87,
    "U": 88,
    "V": 89,
    "W": 90,
    "X": 91,
    "Y": 92,
    "Z": 93,
    "[": 94,
    "\\": 95,
    "]": 96,
    "^": 97,
    "_": 98,
    "`": 99,
    "a": 100,
    "b": 101,
    "c": 102,
    "d": 103,
    "e": 104,
    "f": 105,
    "g": 106,
    "h": 107,
    "i": 108,
    "j": 109,
    "k": 110,
    "l": 111,
    "m": 112,
    "n": 113,
    "o": 114,
    "p": 115,
    "q": 116,
    "r": 117,
    "s": 118,
    "t": 119,
    "u": 120,
    "v": 121,
    "w": 122,
    "x": 123,
    "y": 124,
    "z": 125,
    "{": 126,
    "|": 127,
    "}": 128,
    "~": 129,
    "": 130,
    "": 131,
    "": 132,
    "": 133,
    "": 134,
    "": 135,
    "": 136,
    "": 137,
    "": 138,
    "": 139,
    "": 140,
    "": 141,
    "": 142,
    "": 143,
    "": 144,
    "": 145,
    "": 146,
    "": 147,
    "": 148,
    "": 149,
    "": 150,
    "": 151,
    "": 152,
    "": 153,
    "": 154,
    "": 155,
    "": 156,
    "": 157,
    "": 158,
    "": 159,
    "": 160,
    "": 161,
    "": 162,
    " ": 163,
    "¡": 164,
    "¢": 165,
    "£": 166,
    "¤": 167,
    "¥": 168,
    "¦": 169,
    "§": 170,
    "¨": 171,
    "©": 172,
    "ª": 173,
    "«": 174,
    "¬": 175,
    "­": 176,
    "®": 177,
    "¯": 178,
    "°": 179,
    "±": 180,
    "²": 181,
    "³": 182,
    "´": 183,
    "µ": 184,
    "¶": 185,
    "·": 186,
    "¸": 187,
    "¹": 188,
    "º": 189,
    "»": 190,
    "¼": 191,
    "½": 192,
    "¾": 193,
    "¿": 194,
    "À": 195,
    "Á": 196,
    "Â": 197,
    "Ã": 198,
    "Ä": 199,
    "Å": 200,
    "Æ": 201,
    "Ç": 202,
    "È": 203,
    "É": 204,
    "Ê": 205,
    "Ë": 206,
    "Ì": 207,
    "Í": 208,
    "Î": 209,
    "Ï": 210,
    "Ð": 211,
    "Ñ": 212,
    "Ò": 213,
    "Ó": 214,
    "Ô": 215,
    "Õ": 216,
    "Ö": 217,
    "×": 218,
    "Ø": 219,
    "Ù": 220,
    "Ú": 221,
    "Û": 222,
    "Ü": 223,
    "Ý": 224,
    "Þ": 225,
    "ß": 226,
    "à": 227,
    "á": 228,
    "â": 229,
    "ã": 230,
    "ä": 231,
    "å": 232,
    "æ": 233,
    "ç": 234,
    "è": 235,
    "é": 236,
    "ê": 237,
    "ë": 238,
    "ì": 239,
    "í": 240,
    "î": 241,
    "ï": 242,
    "ð": 243,
    "ñ": 244,
    "ò": 245,
    "ó": 246,
    "ô": 247,
    "õ": 248,
    "ö": 249,
    "÷": 250,
    "ø": 251,
    "ù": 252,
    "ú": 253,
    "û": 254,
    "ü": 255,
    "ý": 256,
    "þ": 257,
    "ÿ": 258,
    "Ā": 259,
    "ā": 260,
    "Ă": 261,
    "ă": 262,
    "Ą": 263,
    "ą": 264,
    "Ć": 265,
    "ć": 266,
    "Ĉ": 267,
    "ĉ": 268,
    "Ċ": 269,
    "ċ": 270,
    "Č": 271,
    "č": 272,
    "Ď": 273,
    "ď": 274,
    "Đ": 275,
    "đ": 276,
    "Ē": 277,
    "ē": 278,
    "ĕ": 279,
    "Ė": 280,
    "ė": 281,
    "Ę": 282,
    "ę": 283,
    "Ě": 284,
    "ě": 285,
    "Ĝ": 286,
    "ĝ": 287,
    "Ğ": 288,
    "ğ": 289,
    "Ġ": 290,
    "ġ": 291,
    "Ģ": 292,
    "ģ": 293,
    "Ĥ": 294,
    "Ħ": 295,
    "ħ": 296,
    "Ĩ": 297,
    "ĩ": 298,
    "Ī": 299,
    "ī": 300,
    "Ĭ": 301,
    "ĭ": 302,
    "Į": 303,
    "į": 304,
    "İ": 305,
    "ı": 306,
    "Ĵ": 307,
    "ĵ": 308,
    "Ķ": 309,
    "ķ": 310,
    "ĸ": 311,
    "Ĺ": 312,
    "ĺ": 313,
    "Ļ": 314,
    "ļ": 315,
    "Ľ": 316,
    "ľ": 317,
    "Ł": 318,
    "ł": 319,
    "Ń": 320,
    "ń": 321,
    "Ņ": 322,
    "ņ": 323,
    "Ň": 324,
    "ň": 325,
    "ŉ": 326,
    "Ŋ": 327,
    "ŋ": 328,
    "Ō": 329,
    "ō": 330,
    "ŏ": 331,
    "Ő": 332,
    "ő": 333,
    "Œ": 334,
    "œ": 335,
    "Ŕ": 336,
    "ŕ": 337,
    "ŗ": 338,
    "Ř": 339,
    "ř": 340,
    "Ś": 341,
    "ś": 342,
    "Ŝ": 343,
    "Ş": 344,
    "ş": 345,
    "Š": 346,
    "š": 347,
    "Ţ": 348,
    "ţ": 349,
    "Ť": 350,
    "ť": 351,
    "Ŧ": 352,
    "ŧ": 353,
    "Ũ": 354,
    "ũ": 355,
    "Ū": 356,
    "ū": 357,
    "ŭ": 358,
    "Ů": 359,
    "ů": 360,
    "Ű": 361,
    "ű": 362,
    "Ų": 363,
    "ų": 364,
    "Ŵ": 365,
    "ŵ": 366,
    "Ŷ": 367,
    "ŷ": 368,
    "Ÿ": 369,
    "Ź": 370,
    "ź": 371,
    "Ż": 372,
    "ż": 373,
    "Ž": 374,
    "ž": 375,
    "ſ": 376,
    "ƀ": 377,
    "Ɓ": 378,
    "Ƃ": 379,
    "ƃ": 380,
    "Ƅ": 381,
    "ƅ": 382,
    "Ɔ": 383,
    "Ƈ": 384,
    "ƈ": 385,
    "Ɖ": 386,
    "Ɗ": 387,
    "Ƌ": 388,
    "ƌ": 389,
    "ƍ": 390,
    "Ǝ": 391,
    "Ə": 392,
    "Ɛ": 393,
    "Ƒ": 394,
    "ƒ": 395,
    "Ɠ": 396,
    "Ɣ": 397,
    "ƕ": 398,
    "Ɩ": 399,
    "Ɨ": 400,
    "Ƙ": 401,
    "ƙ": 402,
    "ƚ": 403,
    "ƛ": 404,
    "Ɯ": 405,
    "Ɲ": 406,
    "ƞ": 407,
    "Ɵ": 408,
    "Ơ": 409,
    "ơ": 410,
    "Ƣ": 411,
    "ƣ": 412,
    "Ƥ": 413,
    "ƥ": 414,
    "Ʀ": 415,
    "Ƨ": 416,
    "ƨ": 417,
    "Ʃ": 418,
    "ƪ": 419,
    "ƫ": 420,
    "Ƭ": 421,
    "ƭ": 422,
    "Ʈ": 423,
    "Ư": 424,
    "ư": 425,
    "Ʊ": 426,
    "Ʋ": 427,
    "Ƴ": 428,
    "ƴ": 429,
    "Ƶ": 430,
    "ƶ": 431,
    "Ʒ": 432,
    "Ƹ": 433,
    "ƹ": 434,
    "ƺ": 435,
    "ƻ": 436,
    "Ƽ": 437,
    "ƽ": 438,
    "ƾ": 439,
    "ƿ": 440,
    "ǀ": 441,
    "ǁ": 442,
    "ǂ": 443,
    "ǃ": 444,
    "Ǆ": 445,
    "ǅ": 446,
    "ǆ": 447,
    "Ǉ": 448,
    "ǈ": 449,
    "ǉ": 450,
    "Ǌ": 451,
    "ǋ": 452,
    "ǌ": 453,
    "Ǎ": 454,
    "ǎ": 455,
    "Ǐ": 456,
    "ǐ": 457,
    "Ǒ": 458,
    "ǒ": 459,
    "Ǔ": 460,
    "ǔ": 461,
    "Ǖ": 462,
    "ǖ": 463,
    "Ǘ": 464,
    "ǘ": 465,
    "Ǚ": 466,
    "ǚ": 467,
    "Ǜ": 468,
    "ǜ": 469,
    "ǝ": 470,
    "Ǟ": 471,
    "ǟ": 472,
    "Ǡ": 473,
    "ǡ": 474,
    "Ǣ": 475,
    "ǣ": 476,
    "Ǥ": 477,
    "ǥ": 478,
    "Ǧ": 479,
    "ǧ": 480,
    "Ǩ": 481,
    "ǩ": 482,
    "Ǫ": 483,
    "ǫ": 484,
    "Ǭ": 485,
    "ǭ": 486,
    "Ǯ": 487,
    "ǯ": 488,
    "ǰ": 489,
    "Ǳ": 490,
    "ǲ": 491,
    "ǳ": 492,
    "Ǵ": 493,
    "ǵ": 494,
    "Ƕ": 495,
    "ǹ": 496,
    "Ǻ": 497,
    "ǻ": 498,
    "Ǽ": 499,
    "ǽ": 500,
    "Ǿ": 501,
    "ǿ": 502,
    "Ȁ": 503,
    "ȁ": 504,
    "Ȃ": 505,
    "ȃ": 506,
    "Ȉ": 507,
    "ȋ": 508,
    "Ȑ": 509,
    "Ȓ": 510,
    "ȕ": 511,
    "ȗ": 512,
    "Ș": 513,
    "ș": 514,
    "Ț": 515,
    "ț": 516,
    "ȝ": 517,
    "Ȧ": 518,
    "ȧ": 519,
    "Ȩ": 520,
    "Ȭ": 521,
    "Ȯ": 522,
    "ȯ": 523,
    "Ȳ": 524,
    "ȳ": 525,
    "ȷ": 526,
    "ȸ": 527,
    "Ⱥ": 528,
    "Ȼ": 529,
    "Ƚ": 530,
    "Ⱦ": 531,
    "Ɂ": 532,
    "ɂ": 533,
    "Ʌ": 534,
    "Ɇ": 535,
    "Ɏ": 536,
    "ɏ": 537,
    "ɐ": 538,
    "ɑ": 539,
    "ɒ": 540,
    "ɓ": 541,
    "ɔ": 542,
    "ɗ": 543,
    "ɘ": 544,
    "ə": 545,
    "ɚ": 546,
    "ɛ": 547,
    "ɜ": 548,
    "ɝ": 549,
    "ɟ": 550,
    "ɠ": 551,
    "ɡ": 552,
    "ɢ": 553,
    "ɣ": 554,
    "ɤ": 555,
    "ɥ": 556,
    "ɧ": 557,
    "ɨ": 558,
    "ɩ": 559,
    "ɪ": 560,
    "ɫ": 561,
    "ɬ": 562,
    "ɯ": 563,
    "ɱ": 564,
    "ɲ": 565,
    "ɳ": 566,
    "ɴ": 567,
    "ɵ": 568,
    "ɶ": 569,
    "ɸ": 570,
    "ɹ": 571,
    "ɺ": 572,
    "ɻ": 573,
    "ɾ": 574,
    "ɿ": 575,
    "ʀ": 576,
    "ʁ": 577,
    "ʂ": 578,
    "ʃ": 579,
    "ʅ": 580,
    "ʇ": 581,
    "ʈ": 582,
    "ʉ": 583,
    "ʊ": 584,
    "ʋ": 585,
    "ʌ": 586,
    "ʍ": 587,
    "ʎ": 588,
    "ʏ": 589,
    "ʐ": 590,
    "ʒ": 591,
    "ʓ": 592,
    "ʔ": 593,
    "ʕ": 594,
    "ʖ": 595,
    "ʘ": 596,
    "ʙ": 597,
    "ʚ": 598,
    "ʜ": 599,
    "ʝ": 600,
    "ʞ": 601,
    "ʟ": 602,
    "ʠ": 603,
    "ʤ": 604,
    "ʦ": 605,
    "ʧ": 606,
    "ʫ": 607,
    "ʬ": 608,
    "ʰ": 609,
    "ʲ": 610,
    "ʳ": 611,
    "ʴ": 612,
    "ʷ": 613,
    "ʸ": 614,
    "ʹ": 615,
    "ʺ": 616,
    "ʻ": 617,
    "ʼ": 618,
    "ʾ": 619,
    "ʿ": 620,
    "ˀ": 621,
    "˂": 622,
    "˃": 623,
    "˄": 624,
    "˅": 625,
    "ˆ": 626,
    "ˇ": 627,
    "ˈ": 628,
    "ˉ": 629,
    "ˊ": 630,
    "ˋ": 631,
    "ˌ": 632,
    "ˍ": 633,
    "ˏ": 634,
    "ː": 635,
    "˒": 636,
    "˗": 637,
    "˘": 638,
    "˙": 639,
    "˚": 640,
    "˛": 641,
    "˜": 642,
    "˝": 643,
    "ˠ": 644,
    "ˡ": 645,
    "ˢ": 646,
    "ˣ": 647,
    "˥": 648,
    "˩": 649,
    "˪": 650,
    "˫": 651,
    "ˬ": 652,
    "˭": 653,
    "ˮ": 654,
    "˳": 655,
    "˴": 656,
    "˶": 657,
    "˹": 658,
    "̀": 659,
    "́": 660,
    "̂": 661,
    "̃": 662,
    "̄": 663,
    "̅": 664,
    "̆": 665,
    "̇": 666,
    "̈": 667,
    "̉": 668,
    "̊": 669,
    "̋": 670,
    "̌": 671,
    "̍": 672,
    "̎": 673,
    "̏": 674,
    "̐": 675,
    "̑": 676,
    "̓": 677,
    "̔": 678,
    "̕": 679,
    "̖": 680,
    "̗": 681,
    "̘": 682,
    "̙": 683,
    "̚": 684,
    "̛": 685,
    "̜": 686,
    "̝": 687,
    "̞": 688,
    "̟": 689,
    "̠": 690,
    "̡": 691,
    "̢": 692,
    "̣": 693,
    "̤": 694,
    "̥": 695,
    "̦": 696,
    "̧": 697,
    "̨": 698,
    "̩": 699,
    "̪": 700,
    "̫": 701,
    "̬": 702,
    "̭": 703,
    "̮": 704,
    "̯": 705,
    "̰": 706,
    "̱": 707,
    "̲": 708,
    "̳": 709,
    "̴": 710,
    "̵": 711,
    "̶": 712,
    "̷": 713,
    "̸": 714,
    "̹": 715,
    "̺": 716,
    "̻": 717,
    "̼": 718,
    "̽": 719,
    "̾": 720,
    "̿": 721,
    "̀": 722,
    "́": 723,
    "͂": 724,
    "̓": 725,
    "̈́": 726,
    "ͅ": 727,
    "͆": 728,
    "͇": 729,
    "͈": 730,
    "͉": 731,
    "͊": 732,
    "͋": 733,
    "͌": 734,
    "͍": 735,
    "͎": 736,
    "͏": 737,
    "͐": 738,
    "͑": 739,
    "͒": 740,
    "͓": 741,
    "͔": 742,
    "͕": 743,
    "͖": 744,
    "͗": 745,
    "͘": 746,
    "͙": 747,
    "͚": 748,
    "͛": 749,
    "͜": 750,
    "͝": 751,
    "͞": 752,
    "͟": 753,
    "͠": 754,
    "͡": 755,
    "͢": 756,
    "ͣ": 757,
    "ͤ": 758,
    "ͥ": 759,
    "ͦ": 760,
    "ͧ": 761,
    "ͨ": 762,
    "ͩ": 763,
    "ͪ": 764,
    "ͫ": 765,
    "ͬ": 766,
    "ͭ": 767,
    "ͮ": 768,
    "ͯ": 769,
    "Ͱ": 770,
    "ͱ": 771,
    "Ͳ": 772,
    "ͳ": 773,
    "ʹ": 774,
    "͵": 775,
    "ͷ": 776,
    "͸": 777,
    "͹": 778,
    "ͺ": 779,
    "ͻ": 780,
    "ͼ": 781,
    ";": 782,
    "Ϳ": 783,
    "΁": 784,
    "΂": 785,
    "΄": 786,
    "΅": 787,
    "Ά": 788,
    "·": 789,
    "Έ": 790,
    "Ή": 791,
    "Ί": 792,
    "΋": 793,
    "Ό": 794,
    "Ύ": 795,
    "Ώ": 796,
    "ΐ": 797,
    "Α": 798,
    "Β": 799,
    "Γ": 800,
    "Δ": 801,
    "Ε": 802,
    "Ζ": 803,
    "Η": 804,
    "Θ": 805,
    "Ι": 806,
    "Κ": 807,
    "Λ": 808,
    "Μ": 809,
    "Ν": 810,
    "Ξ": 811,
    "Ο": 812,
    "Π": 813,
    "Ρ": 814,
    "΢": 815,
    "Σ": 816,
    "Τ": 817,
    "Υ": 818,
    "Φ": 819,
    "Χ": 820,
    "Ψ": 821,
    "Ω": 822,
    "Ϊ": 823,
    "Ϋ": 824,
    "ά": 825,
    "έ": 826,
    "ή": 827,
    "ί": 828,
    "ΰ": 829,
    "α": 830,
    "β": 831,
    "γ": 832,
    "δ": 833,
    "ε": 834,
    "ζ": 835,
    "η": 836,
    "θ": 837,
    "ι": 838,
    "κ": 839,
    "λ": 840,
    "μ": 841,
    "ν": 842,
    "ξ": 843,
    "ο": 844,
    "π": 845,
    "ρ": 846,
    "ς": 847,
    "σ": 848,
    "τ": 849,
    "υ": 850,
    "φ": 851,
    "χ": 852,
    "ψ": 853,
    "ω": 854,
    "ϊ": 855,
    "ϋ": 856,
    "ό": 857,
    "ύ": 858,
    "ώ": 859,
    "Ϗ": 860,
    "ϐ": 861,
    "ϑ": 862,
    "ϒ": 863,
    "ϕ": 864,
    "ϖ": 865,
    "ϙ": 866,
    "Ϛ": 867,
    "ϛ": 868,
    "Ϟ": 869,
    "Ϡ": 870,
    "ϡ": 871,
    "ϧ": 872,
    "ϩ": 873,
    "Ϫ": 874,
    "ϫ": 875,
    "Ϭ": 876,
    "ϭ": 877,
    "Ϯ": 878,
    "ϯ": 879,
    "ϰ": 880,
    "ϱ": 881,
    "ϲ": 882,
    "ϴ": 883,
    "ϵ": 884,
    "Ϸ": 885,
    "Ͻ": 886,
    "Ͼ": 887,
    "Ё": 888,
    "Ђ": 889,
    "Ѓ": 890,
    "Є": 891,
    "Ѕ": 892,
    "І": 893,
    "Ї": 894,
    "Ј": 895,
    "Љ": 896,
    "Њ": 897,
    "Ћ": 898,
    "Ќ": 899,
    "Ў": 900,
    "Џ": 901,
    "А": 902,
    "Б": 903,
    "В": 904,
    "Г": 905,
    "Д": 906,
    "Е": 907,
    "Ж": 908,
    "З": 909,
    "И": 910,
    "Й": 911,
    "К": 912,
    "Л": 913,
    "М": 914,
    "Н": 915,
    "О": 916,
    "П": 917,
    "Р": 918,
    "С": 919,
    "Т": 920,
    "У": 921,
    "Ф": 922,
    "Х": 923,
    "Ц": 924,
    "Ч": 925,
    "Ш": 926,
    "Щ": 927,
    "Ъ": 928,
    "Ы": 929,
    "Ь": 930,
    "Э": 931,
    "Ю": 932,
    "Я": 933,
    "а": 934,
    "б": 935,
    "в": 936,
    "г": 937,
    "д": 938,
    "е": 939,
    "ж": 940,
    "з": 941,
    "и": 942,
    "й": 943,
    "к": 944,
    "л": 945,
    "м": 946,
    "н": 947,
    "о": 948,
    "п": 949,
    "р": 950,
    "с": 951,
    "т": 952,
    "у": 953,
    "ф": 954,
    "х": 955,
    "ц": 956,
    "ч": 957,
    "ш": 958,
    "щ": 959,
    "ъ": 960,
    "ы": 961,
    "ь": 962,
    "э": 963,
    "ю": 964,
    "я": 965,
    "ё": 966,
    "ђ": 967,
    "ѓ": 968,
    "є": 969,
    "ѕ": 970,
    "і": 971,
    "ї": 972,
    "ј": 973,
    "љ": 974,
    "њ": 975,
    "ћ": 976,
    "ќ": 977,
    "ў": 978,
    "џ": 979,
    "Ѣ": 980,
    "ѣ": 981,
    "Ѧ": 982,
    "Ѩ": 983,
    "ѩ": 984,
    "ѭ": 985,
    "ѯ": 986,
    "Ѳ": 987,
    "Ѵ": 988,
    "ѵ": 989,
    "Ѹ": 990,
    "ѽ": 991,
    "҄": 992,
    "҅": 993,
    "Ҋ": 994,
    "Ҏ": 995,
    "Ґ": 996,
    "ґ": 997,
    "Ғ": 998,
    "ғ": 999,
    "ҙ": 1000,
    "Қ": 1001,
    "қ": 1002,
    "Ҡ": 1003,
    "ҡ": 1004,
    "Ң": 1005,
    "ң": 1006,
    "ҧ": 1007,
    "Ү": 1008,
    "ү": 1009,
    "Ұ": 1010,
    "Ҳ": 1011,
    "ҳ": 1012,
    "Ҷ": 1013,
    "ҷ": 1014,
    "Ҹ": 1015,
    "һ": 1016,
    "Ҽ": 1017,
    "ҽ": 1018,
    "ӄ": 1019,
    "ӌ": 1020,
    "Ӎ": 1021,
    "ӓ": 1022,
    "ӗ": 1023,
    "Ӣ": 1024,
    "ӣ": 1025,
    "ӧ": 1026,
    "Ө": 1027,
    "ө": 1028,
    "Ӯ": 1029,
    "ӯ": 1030,
    "Ӱ": 1031,
    "Ӳ": 1032,
    "ӷ": 1033,
    "ӹ": 1034,
    "Ԁ": 1035,
    "ԁ": 1036,
    "Ԅ": 1037,
    "Ԉ": 1038,
    "ԉ": 1039,
    "Ԋ": 1040,
    "Ԑ": 1041,
    "ԑ": 1042,
    "Ԕ": 1043,
    "Ԝ": 1044,
    "Ԡ": 1045,
    "ԣ": 1046,
    "Ԯ": 1047,
    "Գ": 1048,
    "Ե": 1049,
    "Է": 1050,
    "Թ": 1051,
    "Լ": 1052,
    "Խ": 1053,
    "Ծ": 1054,
    "Կ": 1055,
    "Հ": 1056,
    "Ճ": 1057,
    "Մ": 1058,
    "Ն": 1059,
    "Ո": 1060,
    "Ս": 1061,
    "Վ": 1062,
    "՚": 1063,
    "՛": 1064,
    "՜": 1065,
    "՝": 1066,
    "ա": 1067,
    "բ": 1068,
    "գ": 1069,
    "ե": 1070,
    "զ": 1071,
    "թ": 1072,
    "ժ": 1073,
    "ի": 1074,
    "լ": 1075,
    "կ": 1076,
    "հ": 1077,
    "ղ": 1078,
    "ճ": 1079,
    "մ": 1080,
    "յ": 1081,
    "ն": 1082,
    "ո": 1083,
    "պ": 1084,
    "ռ": 1085,
    "տ": 1086,
    "ր": 1087,
    "ց": 1088,
    "ւ": 1089,
    "փ": 1090,
    "ք": 1091,
    "֌": 1092,
    "֍": 1093,
    "֏": 1094,
    "֑": 1095,
    "֒": 1096,
    "֔": 1097,
    "֖": 1098,
    "֗": 1099,
    "֘": 1100,
    "֙": 1101,
    "֚": 1102,
    "֛": 1103,
    "֜": 1104,
    "֡": 1105,
    "֣": 1106,
    "֤": 1107,
    "֥": 1108,
    "֧": 1109,
    "֨": 1110,
    "֩": 1111,
    "֬": 1112,
    "֮": 1113,
    "֯": 1114,
    "ְ": 1115,
    "ֱ": 1116,
    "ֲ": 1117,
    "ִ": 1118,
    "ֵ": 1119,
    "ֶ": 1120,
    "ַ": 1121,
    "ָ": 1122,
    "ֹ": 1123,
    "ֺ": 1124,
    "ֻ": 1125,
    "ּ": 1126,
    "ֽ": 1127,
    "־": 1128,
    "ֿ": 1129,
    "׀": 1130,
    "ׁ": 1131,
    "ׂ": 1132,
    "׃": 1133,
    "ׅ": 1134,
    "ׇ": 1135,
    "׍": 1136,
    "א": 1137,
    "ב": 1138,
    "ג": 1139,
    "ד": 1140,
    "ה": 1141,
    "ו": 1142,
    "ז": 1143,
    "ח": 1144,
    "ט": 1145,
    "י": 1146,
    "ך": 1147,
    "כ": 1148,
    "ל": 1149,
    "ם": 1150,
    "מ": 1151,
    "ן": 1152,
    "נ": 1153,
    "ס": 1154,
    "ע": 1155,
    "ף": 1156,
    "פ": 1157,
    "ץ": 1158,
    "צ": 1159,
    "ק": 1160,
    "ר": 1161,
    "ש": 1162,
    "ת": 1163,
    "׮": 1164,
    "ׯ": 1165,
    "װ": 1166,
    "ױ": 1167,
    "ײ": 1168,
    "׳": 1169,
    "״": 1170,
    "׵": 1171,
    "׿": 1172,
    "؂": 1173,
    "؉": 1174,
    "،": 1175,
    "؍": 1176,
    "ؒ": 1177,
    "ؕ": 1178,
    "ؖ": 1179,
    "ؚ": 1180,
    "؛": 1181,
    "؞": 1182,
    "؟": 1183,
    "ء": 1184,
    "آ": 1185,
    "أ": 1186,
    "ؤ": 1187,
    "إ": 1188,
    "ئ": 1189,
    "ا": 1190,
    "ب": 1191,
    "ة": 1192,
    "ت": 1193,
    "ث": 1194,
    "ج": 1195,
    "ح": 1196,
    "خ": 1197,
    "د": 1198,
    "ذ": 1199,
    "ر": 1200,
    "ز": 1201,
    "س": 1202,
    "ش": 1203,
    "ص": 1204,
    "ض": 1205,
    "ط": 1206,
    "ظ": 1207,
    "ع": 1208,
    "غ": 1209,
    "ؼ": 1210,
    "ـ": 1211,
    "ف": 1212,
    "ق": 1213,
    "ك": 1214,
    "ل": 1215,
    "م": 1216,
    "ن": 1217,
    "ه": 1218,
    "و": 1219,
    "ى": 1220,
    "ي": 1221,
    "ً": 1222,
    "ٌ": 1223,
    "ٍ": 1224,
    "َ": 1225,
    "ُ": 1226,
    "ِ": 1227,
    "ّ": 1228,
    "ْ": 1229,
    "ٓ": 1230,
    "ٔ": 1231,
    "ٗ": 1232,
    "ٚ": 1233,
    "ٜ": 1234,
    "ٝ": 1235,
    "٠": 1236,
    "١": 1237,
    "٢": 1238,
    "٣": 1239,
    "٤": 1240,
    "٥": 1241,
    "٦": 1242,
    "٧": 1243,
    "٨": 1244,
    "٩": 1245,
    "٫": 1246,
    "٬": 1247,
    "٭": 1248,
    "ٮ": 1249,
    "ٯ": 1250,
    "ٰ": 1251,
    "ٱ": 1252,
    "ٴ": 1253,
    "ٶ": 1254,
    "ٸ": 1255,
    "ٹ": 1256,
    "پ": 1257,
    "ځ": 1258,
    "ڄ": 1259,
    "چ": 1260,
    "ڈ": 1261,
    "ڍ": 1262,
    "ڏ": 1263,
    "ڐ": 1264,
    "ڑ": 1265,
    "ړ": 1266,
    "ڕ": 1267,
    "ژ": 1268,
    "ښ": 1269,
    "ڢ": 1270,
    "ڣ": 1271,
    "ڤ": 1272,
    "ڥ": 1273,
    "ک": 1274,
    "ڭ": 1275,
    "گ": 1276,
    "ڰ": 1277,
    "ڲ": 1278,
    "ڵ": 1279,
    "ں": 1280,
    "ڻ": 1281,
    "ھ": 1282,
    "ۀ": 1283,
    "ہ": 1284,
    "ۅ": 1285,
    "ۆ": 1286,
    "ۇ": 1287,
    "ۈ": 1288,
    "ۉ": 1289,
    "ۊ": 1290,
    "ۋ": 1291,
    "ی": 1292,
    "ێ": 1293,
    "ې": 1294,
    "ے": 1295,
    "۔": 1296,
    "ە": 1297,
    "ۖ": 1298,
    "ۗ": 1299,
    "ۙ": 1300,
    "ۚ": 1301,
    "ۛ": 1302,
    "ۜ": 1303,
    "۠": 1304,
    "ۡ": 1305,
    "ۢ": 1306,
    "ۤ": 1307,
    "ۥ": 1308,
    "ۨ": 1309,
    "۩": 1310,
    "۪": 1311,
    "۫": 1312,
    "۬": 1313,
    "ۭ": 1314,
    "۰": 1315,
    "۱": 1316,
    "۲": 1317,
    "۳": 1318,
    "۴": 1319,
    "۵": 1320,
    "۶": 1321,
    "۷": 1322,
    "۸": 1323,
    "۹": 1324,
    "܇": 1325,
    "܋": 1326,
    "܎": 1327,
    "ܓ": 1328,
    "ܗ": 1329,
    "ܠ": 1330,
    "ܦ": 1331,
    "ܨ": 1332,
    "ܭ": 1333,
    "ܵ": 1334,
    "ܶ": 1335,
    "ܸ": 1336,
    "ܺ": 1337,
    "ܽ": 1338,
    "ܾ": 1339,
    "ܿ": 1340,
    "݀": 1341,
    "݁": 1342,
    "݂": 1343,
    "݃": 1344,
    "݄": 1345,
    "݅": 1346,
    "݇": 1347,
    "݈": 1348,
    "݉": 1349,
    "݊": 1350,
    "݋": 1351,
    "݌": 1352,
    "ݎ": 1353,
    "ݏ": 1354,
    "ݐ": 1355,
    "ݑ": 1356,
    "ݓ": 1357,
    "ݔ": 1358,
    "ݕ": 1359,
    "ݛ": 1360,
    "ݢ": 1361,
    "ݱ": 1362,
    "ݲ": 1363,
    "ݴ": 1364,
    "ݸ": 1365,
    "ދ": 1366,
    "ލ": 1367,
    "ޏ": 1368,
    "ޙ": 1369,
    "ޚ": 1370,
    "ަ": 1371,
    "ު": 1372,
    "ޫ": 1373,
    "ް": 1374,
    "ޱ": 1375,
    "޴": 1376,
    "޵": 1377,
    "߀": 1378,
    "߄": 1379,
    "߆": 1380,
    "ߏ": 1381,
    "ߒ": 1382,
    "ߖ": 1383,
    "ߗ": 1384,
    "ߝ": 1385,
    "ߟ": 1386,
    "ߦ": 1387,
    "ߨ": 1388,
    "߮": 1389,
    "߸": 1390,
    "߹": 1391,
    "߻": 1392,
    "߼": 1393,
    "߽": 1394,
    "ࠩ": 1395,
    "࠵": 1396,
    "࠶": 1397,
    "ࡏ": 1398,
    "ࡾ": 1399,
    "ࢇ": 1400,
    "࢈": 1401,
    "ࢉ": 1402,
    "ࢋ": 1403,
    "ࢌ": 1404,
    "ࢍ": 1405,
    "ࢎ": 1406,
    "࢏": 1407,
    "࢑": 1408,
    "࢒": 1409,
    "࢓": 1410,
    "࢔": 1411,
    "࢕": 1412,
    "࢖": 1413,
    "࢘": 1414,
    "࢙": 1415,
    "࢚": 1416,
    "࢛": 1417,
    "࢞": 1418,
    "࢟": 1419,
    "࣍": 1420,
    "ࣔ": 1421,
    "ࣜ": 1422,
    "ࣝ": 1423,
    "࣭": 1424,
    "࣮": 1425,
    "ࣹ": 1426,
    "ँ": 1427,
    "ं": 1428,
    "ः": 1429,
    "अ": 1430,
    "आ": 1431,
    "इ": 1432,
    "ई": 1433,
    "उ": 1434,
    "ऊ": 1435,
    "ऋ": 1436,
    "ऍ": 1437,
    "ए": 1438,
    "ऐ": 1439,
    "ऑ": 1440,
    "ओ": 1441,
    "औ": 1442,
    "क": 1443,
    "ख": 1444,
    "ग": 1445,
    "घ": 1446,
    "ङ": 1447,
    "च": 1448,
    "छ": 1449,
    "ज": 1450,
    "झ": 1451,
    "ञ": 1452,
    "ट": 1453,
    "ठ": 1454,
    "ड": 1455,
    "ढ": 1456,
    "ण": 1457,
    "त": 1458,
    "थ": 1459,
    "द": 1460,
    "ध": 1461,
    "न": 1462,
    "प": 1463,
    "फ": 1464,
    "ब": 1465,
    "भ": 1466,
    "म": 1467,
    "य": 1468,
    "र": 1469,
    "ल": 1470,
    "ळ": 1471,
    "व": 1472,
    "श": 1473,
    "ष": 1474,
    "स": 1475,
    "ह": 1476,
    "़": 1477,
    "ऽ": 1478,
    "ा": 1479,
    "ि": 1480,
    "ी": 1481,
    "ु": 1482,
    "ू": 1483,
    "ृ": 1484,
    "ॅ": 1485,
    "े": 1486,
    "ै": 1487,
    "ॉ": 1488,
    "ॊ": 1489,
    "ो": 1490,
    "ौ": 1491,
    "्": 1492,
    "ॎ": 1493,
    "ॏ": 1494,
    "ॐ": 1495,
    "क़": 1496,
    "ख़": 1497,
    "ग़": 1498,
    "ज़": 1499,
    "ड़": 1500,
    "ढ़": 1501,
    "फ़": 1502,
    "य़": 1503,
    "।": 1504,
    "॥": 1505,
    "०": 1506,
    "१": 1507,
    "२": 1508,
    "३": 1509,
    "४": 1510,
    "५": 1511,
    "६": 1512,
    "७": 1513,
    "८": 1514,
    "९": 1515,
    "॰": 1516,
    "ঁ": 1517,
    "ং": 1518,
    "ঃ": 1519,
    "অ": 1520,
    "আ": 1521,
    "ই": 1522,
    "ঈ": 1523,
    "উ": 1524,
    "ঊ": 1525,
    "ঋ": 1526,
    "এ": 1527,
    "ঐ": 1528,
    "ও": 1529,
    "ঔ": 1530,
    "ক": 1531,
    "খ": 1532,
    "গ": 1533,
    "ঘ": 1534,
    "ঙ": 1535,
    "চ": 1536,
    "ছ": 1537,
    "জ": 1538,
    "ঝ": 1539,
    "ঞ": 1540,
    "ট": 1541,
    "ঠ": 1542,
    "ড": 1543,
    "ঢ": 1544,
    "ণ": 1545,
    "ত": 1546,
    "থ": 1547,
    "দ": 1548,
    "ধ": 1549,
    "ন": 1550,
    "প": 1551,
    "ফ": 1552,
    "ব": 1553,
    "ভ": 1554,
    "ম": 1555,
    "য": 1556,
    "র": 1557,
    "ল": 1558,
    "শ": 1559,
    "ষ": 1560,
    "স": 1561,
    "হ": 1562,
    "়": 1563,
    "া": 1564,
    "ি": 1565,
    "ী": 1566,
    "ু": 1567,
    "ূ": 1568,
    "ৃ": 1569,
    "ে": 1570,
    "ৈ": 1571,
    "ো": 1572,
    "ৌ": 1573,
    "্": 1574,
    "ৎ": 1575,
    "৐": 1576,
    "ৗ": 1577,
    "ড়": 1578,
    "ঢ়": 1579,
    "য়": 1580,
    "০": 1581,
    "১": 1582,
    "২": 1583,
    "৩": 1584,
    "৪": 1585,
    "৫": 1586,
    "৬": 1587,
    "৭": 1588,
    "৮": 1589,
    "৯": 1590,
    "ৰ": 1591,
    "ਂ": 1592,
    "ਅ": 1593,
    "ਆ": 1594,
    "ਐ": 1595,
    "ਕ": 1596,
    "ਖ": 1597,
    "ਗ": 1598,
    "ਘ": 1599,
    "ਚ": 1600,
    "ਜ": 1601,
    "ਟ": 1602,
    "ਠ": 1603,
    "ਡ": 1604,
    "ਣ": 1605,
    "ਤ": 1606,
    "ਥ": 1607,
    "ਦ": 1608,
    "ਨ": 1609,
    "ਪ": 1610,
    "ਬ": 1611,
    "ਭ": 1612,
    "ਮ": 1613,
    "ਯ": 1614,
    "ਰ": 1615,
    "ਲ": 1616,
    "ਵ": 1617,
    "ਸ": 1618,
    "ਹ": 1619,
    "਺": 1620,
    "਼": 1621,
    "ਾ": 1622,
    "ਿ": 1623,
    "ੀ": 1624,
    "ੁ": 1625,
    "ੂ": 1626,
    "ੇ": 1627,
    "ੈ": 1628,
    "ੋ": 1629,
    "੍": 1630,
    "ੑ": 1631,
    "੒": 1632,
    "ਖ਼": 1633,
    "੭": 1634,
    "ੰ": 1635,
    "ੱ": 1636,
    "ੳ": 1637,
    "ੵ": 1638,
    "ં": 1639,
    "અ": 1640,
    "આ": 1641,
    "ઇ": 1642,
    "ઈ": 1643,
    "એ": 1644,
    "ઓ": 1645,
    "ક": 1646,
    "ખ": 1647,
    "ગ": 1648,
    "ઘ": 1649,
    "ચ": 1650,
    "છ": 1651,
    "જ": 1652,
    "ઝ": 1653,
    "ટ": 1654,
    "ઠ": 1655,
    "ડ": 1656,
    "ણ": 1657,
    "ત": 1658,
    "થ": 1659,
    "દ": 1660,
    "ધ": 1661,
    "ન": 1662,
    "પ": 1663,
    "ફ": 1664,
    "બ": 1665,
    "મ": 1666,
    "ય": 1667,
    "ર": 1668,
    "લ": 1669,
    "ળ": 1670,
    "વ": 1671,
    "શ": 1672,
    "ષ": 1673,
    "સ": 1674,
    "હ": 1675,
    "ા": 1676,
    "િ": 1677,
    "ી": 1678,
    "ુ": 1679,
    "ૂ": 1680,
    "ે": 1681,
    "ૉ": 1682,
    "ો": 1683,
    "ૌ": 1684,
    "્": 1685,
    "૙": 1686,
    "૚": 1687,
    "૛": 1688,
    "૜": 1689,
    "૝": 1690,
    "૞": 1691,
    "૟": 1692,
    "ૠ": 1693,
    "ૢ": 1694,
    "૧": 1695,
    "૨": 1696,
    "૩": 1697,
    "૪": 1698,
    "૬": 1699,
    "૾": 1700,
    "ଆ": 1701,
    "ଐ": 1702,
    "ଓ": 1703,
    "ଘ": 1704,
    "ଜ": 1705,
    "ଡ": 1706,
    "ତ": 1707,
    "ଧ": 1708,
    "ବ": 1709,
    "ର": 1710,
    "ଳ": 1711,
    "ଵ": 1712,
    "ଷ": 1713,
    "ସ": 1714,
    "ହ": 1715,
    "଼": 1716,
    "ା": 1717,
    "ି": 1718,
    "ୀ": 1719,
    "ୁ": 1720,
    "େ": 1721,
    "ୈ": 1722,
    "ஃ": 1723,
    "அ": 1724,
    "ஆ": 1725,
    "இ": 1726,
    "ஈ": 1727,
    "உ": 1728,
    "ஊ": 1729,
    "எ": 1730,
    "ஏ": 1731,
    "ஐ": 1732,
    "ஒ": 1733,
    "ஓ": 1734,
    "ஔ": 1735,
    "க": 1736,
    "ங": 1737,
    "ச": 1738,
    "ஞ": 1739,
    "ட": 1740,
    "஢": 1741,
    "ண": 1742,
    "த": 1743,
    "ந": 1744,
    "ன": 1745,
    "ப": 1746,
    "஫": 1747,
    "ம": 1748,
    "ய": 1749,
    "ர": 1750,
    "ற": 1751,
    "ல": 1752,
    "ள": 1753,
    "ழ": 1754,
    "வ": 1755,
    "ஶ": 1756,
    "ஷ": 1757,
    "ா": 1758,
    "ி": 1759,
    "ீ": 1760,
    "ு": 1761,
    "ூ": 1762,
    "ெ": 1763,
    "ே": 1764,
    "ை": 1765,
    "ொ": 1766,
    "ோ": 1767,
    "்": 1768,
    "௔": 1769,
    "௖": 1770,
    "ௗ": 1771,
    "௚": 1772,
    "௜": 1773,
    "௞": 1774,
    "௟": 1775,
    "௡": 1776,
    "௢": 1777,
    "௧": 1778,
    "ం": 1779,
    "ః": 1780,
    "అ": 1781,
    "ఆ": 1782,
    "ఇ": 1783,
    "ఈ": 1784,
    "ఉ": 1785,
    "ఎ": 1786,
    "ఏ": 1787,
    "ఒ": 1788,
    "క": 1789,
    "ఖ": 1790,
    "గ": 1791,
    "ఘ": 1792,
    "చ": 1793,
    "ఛ": 1794,
    "జ": 1795,
    "ఞ": 1796,
    "ట": 1797,
    "ఠ": 1798,
    "డ": 1799,
    "ణ": 1800,
    "త": 1801,
    "థ": 1802,
    "ద": 1803,
    "ధ": 1804,
    "న": 1805,
    "ప": 1806,
    "ఫ": 1807,
    "బ": 1808,
    "భ": 1809,
    "మ": 1810,
    "య": 1811,
    "ర": 1812,
    "ల": 1813,
    "ళ": 1814,
    "వ": 1815,
    "శ": 1816,
    "ష": 1817,
    "స": 1818,
    "హ": 1819,
    "ా": 1820,
    "ి": 1821,
    "ీ": 1822,
    "ు": 1823,
    "ూ": 1824,
    "ృ": 1825,
    "ె": 1826,
    "ే": 1827,
    "ై": 1828,
    "ొ": 1829,
    "ో": 1830,
    "ౌ": 1831,
    "్": 1832,
    "౳": 1833,
    "౷": 1834,
    "ಂ": 1835,
    "ಅ": 1836,
    "ಆ": 1837,
    "ಇ": 1838,
    "ಈ": 1839,
    "ಉ": 1840,
    "ಋ": 1841,
    "ಌ": 1842,
    "ಎ": 1843,
    "ಏ": 1844,
    "ಕ": 1845,
    "ಖ": 1846,
    "ಗ": 1847,
    "ಘ": 1848,
    "ಚ": 1849,
    "ಜ": 1850,
    "ಟ": 1851,
    "ಠ": 1852,
    "ಡ": 1853,
    "ಣ": 1854,
    "ತ": 1855,
    "ಥ": 1856,
    "ದ": 1857,
    "ನ": 1858,
    "ಪ": 1859,
    "ಫ": 1860,
    "ಬ": 1861,
    "ಭ": 1862,
    "ಮ": 1863,
    "ಯ": 1864,
    "ರ": 1865,
    "ಲ": 1866,
    "ಳ": 1867,
    "ವ": 1868,
    "ಶ": 1869,
    "ಷ": 1870,
    "ಸ": 1871,
    "ಹ": 1872,
    "಺": 1873,
    "ಾ": 1874,
    "ಿ": 1875,
    "ೀ": 1876,
    "ು": 1877,
    "ೃ": 1878,
    "ೆ": 1879,
    "ೇ": 1880,
    "ೈ": 1881,
    "ೊ": 1882,
    "ೋ": 1883,
    "್": 1884,
    "೚": 1885,
    "ೝ": 1886,
    "ം": 1887,
    "അ": 1888,
    "ആ": 1889,
    "ഇ": 1890,
    "ഈ": 1891,
    "ഉ": 1892,
    "എ": 1893,
    "ഏ": 1894,
    "ഒ": 1895,
    "ഓ": 1896,
    "ക": 1897,
    "ഗ": 1898,
    "ങ": 1899,
    "ച": 1900,
    "ജ": 1901,
    "ഞ": 1902,
    "ട": 1903,
    "ഡ": 1904,
    "ണ": 1905,
    "ത": 1906,
    "ദ": 1907,
    "ന": 1908,
    "പ": 1909,
    "ഫ": 1910,
    "ബ": 1911,
    "ഭ": 1912,
    "മ": 1913,
    "യ": 1914,
    "ര": 1915,
    "റ": 1916,
    "ല": 1917,
    "ള": 1918,
    "ഴ": 1919,
    "വ": 1920,
    "ശ": 1921,
    "ഷ": 1922,
    "സ": 1923,
    "ഹ": 1924,
    "഼": 1925,
    "ഽ": 1926,
    "ാ": 1927,
    "ി": 1928,
    "ീ": 1929,
    "ു": 1930,
    "ൂ": 1931,
    "ൃ": 1932,
    "൅": 1933,
    "െ": 1934,
    "േ": 1935,
    "ൈ": 1936,
    "ൊ": 1937,
    "ോ": 1938,
    "ൌ": 1939,
    "്": 1940,
    "ൗ": 1941,
    "൘": 1942,
    "ൺ": 1943,
    "ൻ": 1944,
    "ർ": 1945,
    "ൽ": 1946,
    "ൾ": 1947,
    "ං": 1948,
    "ඇ": 1949,
    "උ": 1950,
    "එ": 1951,
    "ක": 1952,
    "ග": 1953,
    "ච": 1954,
    "ඡ": 1955,
    "ට": 1956,
    "ඨ": 1957,
    "ඩ": 1958,
    "ණ": 1959,
    "ත": 1960,
    "ද": 1961,
    "ධ": 1962,
    "න": 1963,
    "ඳ": 1964,
    "ප": 1965,
    "බ": 1966,
    "භ": 1967,
    "ම": 1968,
    "ය": 1969,
    "ර": 1970,
    "ල": 1971,
    "ව": 1972,
    "ස": 1973,
    "හ": 1974,
    "ළ": 1975,
    "ෆ": 1976,
    "෇": 1977,
    "්": 1978,
    "෍": 1979,
    "ා": 1980,
    "ැ": 1981,
    "ි": 1982,
    "ී": 1983,
    "ු": 1984,
    "ෙ": 1985,
    "ේ": 1986,
    "ො": 1987,
    "ෝ": 1988,
    "෼": 1989,
    "ก": 1990,
    "ข": 1991,
    "ฃ": 1992,
    "ค": 1993,
    "ฅ": 1994,
    "ฆ": 1995,
    "ง": 1996,
    "จ": 1997,
    "ฉ": 1998,
    "ช": 1999,
    "ซ": 2000,
    "ฌ": 2001,
    "ญ": 2002,
    "ฎ": 2003,
    "ฏ": 2004,
    "ฐ": 2005,
    "ฑ": 2006,
    "ฒ": 2007,
    "ณ": 2008,
    "ด": 2009,
    "ต": 2010,
    "ถ": 2011,
    "ท": 2012,
    "ธ": 2013,
    "น": 2014,
    "บ": 2015,
    "ป": 2016,
    "ผ": 2017,
    "ฝ": 2018,
    "พ": 2019,
    "ฟ": 2020,
    "ภ": 2021,
    "ม": 2022,
    "ย": 2023,
    "ร": 2024,
    "ฤ": 2025,
    "ล": 2026,
    "ฦ": 2027,
    "ว": 2028,
    "ศ": 2029,
    "ษ": 2030,
    "ส": 2031,
    "ห": 2032,
    "ฬ": 2033,
    "อ": 2034,
    "ฮ": 2035,
    "ฯ": 2036,
    "ะ": 2037,
    "ั": 2038,
    "า": 2039,
    "ำ": 2040,
    "ิ": 2041,
    "ี": 2042,
    "ึ": 2043,
    "ื": 2044,
    "ุ": 2045,
    "ู": 2046,
    "฿": 2047,
    "เ": 2048,
    "แ": 2049,
    "โ": 2050,
    "ใ": 2051,
    "ไ": 2052,
    "ๆ": 2053,
    "็": 2054,
    "่": 2055,
    "้": 2056,
    "๊": 2057,
    "์": 2058,
    "ํ": 2059,
    "๎": 2060,
    "๏": 2061,
    "๐": 2062,
    "๑": 2063,
    "๒": 2064,
    "๓": 2065,
    "๔": 2066,
    "๕": 2067,
    "๖": 2068,
    "๗": 2069,
    "๘": 2070,
    "๙": 2071,
    "ກ": 2072,
    "ຂ": 2073,
    "ຄ": 2074,
    "ຍ": 2075,
    "ດ": 2076,
    "ທ": 2077,
    "ນ": 2078,
    "ບ": 2079,
    "ປ": 2080,
    "ຜ": 2081,
    "ມ": 2082,
    "ລ": 2083,
    "ວ": 2084,
    "ສ": 2085,
    "ຫ": 2086,
    "ຬ": 2087,
    "ອ": 2088,
    "ະ": 2089,
    "ັ": 2090,
    "າ": 2091,
    "ຳ": 2092,
    "ິ": 2093,
    "ີ": 2094,
    "ຶ": 2095,
    "ຸ": 2096,
    "ົ": 2097,
    "ເ": 2098,
    "ແ": 2099,
    "່": 2100,
    "້": 2101,
    "໨": 2102,
    "໭": 2103,
    "་": 2104,
    "།": 2105,
    "༎": 2106,
    "༞": 2107,
    "༠": 2108,
    "༡": 2109,
    "༢": 2110,
    "༣": 2111,
    "༤": 2112,
    "༥": 2113,
    "༦": 2114,
    "༧": 2115,
    "༨": 2116,
    "༩": 2117,
    "༶": 2118,
    "༺": 2119,
    "༻": 2120,
    "༽": 2121,
    "ཀ": 2122,
    "ཁ": 2123,
    "ག": 2124,
    "ང": 2125,
    "ཅ": 2126,
    "ཉ": 2127,
    "ད": 2128,
    "ན": 2129,
    "པ": 2130,
    "བ": 2131,
    "མ": 2132,
    "ཞ": 2133,
    "འ": 2134,
    "ར": 2135,
    "ལ": 2136,
    "ས": 2137,
    "ཧ": 2138,
    "ཱ": 2139,
    "ི": 2140,
    "ུ": 2141,
    "ེ": 2142,
    "ོ": 2143,
    "ྎ": 2144,
    "ྏ": 2145,
    "ྑ": 2146,
    "ྒ": 2147,
    "ྕ": 2148,
    "ྗ": 2149,
    "ྡ": 2150,
    "ྣ": 2151,
    "ྫ": 2152,
    "ྱ": 2153,
    "ྲ": 2154,
    "ྻ": 2155,
    "࿨": 2156,
    "က": 2157,
    "ခ": 2158,
    "င": 2159,
    "စ": 2160,
    "ည": 2161,
    "ဋ": 2162,
    "တ": 2163,
    "ထ": 2164,
    "ဒ": 2165,
    "န": 2166,
    "ပ": 2167,
    "ဘ": 2168,
    "မ": 2169,
    "ယ": 2170,
    "ရ": 2171,
    "လ": 2172,
    "ဝ": 2173,
    "သ": 2174,
    "အ": 2175,
    "ာ": 2176,
    "ိ": 2177,
    "ု": 2178,
    "ေ": 2179,
    "ံ": 2180,
    "့": 2181,
    "း": 2182,
    "္": 2183,
    "်": 2184,
    "ြ": 2185,
    "ွ": 2186,
    "ှ": 2187,
    "၀": 2188,
    "၁": 2189,
    "၂": 2190,
    "၄": 2191,
    "၇": 2192,
    "၊": 2193,
    "ა": 2194,
    "ბ": 2195,
    "გ": 2196,
    "დ": 2197,
    "ე": 2198,
    "ვ": 2199,
    "ზ": 2200,
    "თ": 2201,
    "ი": 2202,
    "კ": 2203,
    "ლ": 2204,
    "მ": 2205,
    "ნ": 2206,
    "ო": 2207,
    "პ": 2208,
    "ჟ": 2209,
    "რ": 2210,
    "ს": 2211,
    "ტ": 2212,
    "უ": 2213,
    "ფ": 2214,
    "ქ": 2215,
    "ღ": 2216,
    "ყ": 2217,
    "შ": 2218,
    "ჩ": 2219,
    "ც": 2220,
    "ძ": 2221,
    "წ": 2222,
    "ჭ": 2223,
    "ხ": 2224,
    "ჯ": 2225,
    "ჰ": 2226,
    "ᄀ": 2227,
    "ᄁ": 2228,
    "ᄂ": 2229,
    "ᄃ": 2230,
    "ᄄ": 2231,
    "ᄅ": 2232,
    "ᄆ": 2233,
    "ᄇ": 2234,
    "ᄈ": 2235,
    "ᄉ": 2236,
    "ᄊ": 2237,
    "ᄋ": 2238,
    "ᄌ": 2239,
    "ᄍ": 2240,
    "ᄎ": 2241,
    "ᄏ": 2242,
    "ᄐ": 2243,
    "ᄑ": 2244,
    "ᄒ": 2245,
    "ᅟ": 2246,
    "ᅠ": 2247,
    "ᅡ": 2248,
    "ᅥ": 2249,
    "ᅦ": 2250,
    "ᅧ": 2251,
    "ᅨ": 2252,
    "ᅮ": 2253,
    "ᅳ": 2254,
    "ᅴ": 2255,
    "ᅵ": 2256,
    "ᆩ": 2257,
    "ᆫ": 2258,
    "ᆬ": 2259,
    "ᆮ": 2260,
    "ᆯ": 2261,
    "ᆰ": 2262,
    "ᆱ": 2263,
    "ᆲ": 2264,
    "ᆴ": 2265,
    "ᆷ": 2266,
    "ᆸ": 2267,
    "ᆽ": 2268,
    "ᆾ": 2269,
    "ᆿ": 2270,
    "ᇀ": 2271,
    "ᇁ": 2272,
    "ᇂ": 2273,
    "ለ": 2274,
    "ል": 2275,
    "መ": 2276,
    "ማ": 2277,
    "ራ": 2278,
    "ር": 2279,
    "ሰ": 2280,
    "ሺ": 2281,
    "ሻ": 2282,
    "ሽ": 2283,
    "ቌ": 2284,
    "ቍ": 2285,
    "በ": 2286,
    "ቤ": 2287,
    "ብ": 2288,
    "ታ": 2289,
    "ት": 2290,
    "ኛ": 2291,
    "አ": 2292,
    "ኢ": 2293,
    "ኣ": 2294,
    "ኤ": 2295,
    "እ": 2296,
    "ካ": 2297,
    "ው": 2298,
    "ጉ": 2299,
    "ግ": 2300,
    "ጢ": 2301,
    "፥": 2302,
    "ᎏ": 2303,
    "Ꭵ": 2304,
    "Ꭼ": 2305,
    "Ꮒ": 2306,
    "ᐅ": 2307,
    "ᐉ": 2308,
    "ᐟ": 2309,
    "ᐠ": 2310,
    "ᐣ": 2311,
    "ᐱ": 2312,
    "ᑎ": 2313,
    "ᑫ": 2314,
    "ᒾ": 2315,
    "ᓚ": 2316,
    "ᕗ": 2317,
    "ᕙ": 2318,
    "ᕽ": 2319,
    "ᗜ": 2320,
    "ᗡ": 2321,
    "ᗢ": 2322,
    "ᘏ": 2323,
    "ᘔ": 2324,
    " ": 2325,
    "ᚓ": 2326,
    "ᚠ": 2327,
    "ᚢ": 2328,
    "ᚦ": 2329,
    "ᚨ": 2330,
    "ᚭ": 2331,
    "ᚱ": 2332,
    "ᚲ": 2333,
    "ᚴ": 2334,
    "ᚵ": 2335,
    "ᚷ": 2336,
    "ᚹ": 2337,
    "ᚼ": 2338,
    "ᚽ": 2339,
    "ᚾ": 2340,
    "ᚿ": 2341,
    "ᛁ": 2342,
    "ᛃ": 2343,
    "ᛅ": 2344,
    "ᛆ": 2345,
    "ᛇ": 2346,
    "ᛈ": 2347,
    "ᛉ": 2348,
    "ᛊ": 2349,
    "ᛋ": 2350,
    "ᛌ": 2351,
    "ᛏ": 2352,
    "ᛐ": 2353,
    "ᛒ": 2354,
    "ᛓ": 2355,
    "ᛖ": 2356,
    "ᛗ": 2357,
    "ᛘ": 2358,
    "ᛙ": 2359,
    "ᛚ": 2360,
    "ᛜ": 2361,
    "ᛞ": 2362,
    "ᛟ": 2363,
    "ᛦ": 2364,
    "ᛧ": 2365,
    "ក": 2366,
    "ខ": 2367,
    "គ": 2368,
    "ង": 2369,
    "ច": 2370,
    "ជ": 2371,
    "ញ": 2372,
    "ដ": 2373,
    "ណ": 2374,
    "ត": 2375,
    "ថ": 2376,
    "ទ": 2377,
    "ន": 2378,
    "ប": 2379,
    "ព": 2380,
    "ភ": 2381,
    "ម": 2382,
    "យ": 2383,
    "រ": 2384,
    "ល": 2385,
    "ស": 2386,
    "ហ": 2387,
    "អ": 2388,
    "ា": 2389,
    "ិ": 2390,
    "ី": 2391,
    "ឹ": 2392,
    "ុ": 2393,
    "ូ": 2394,
    "ួ": 2395,
    "ើ": 2396,
    "ឿ": 2397,
    "េ": 2398,
    "ែ": 2399,
    "ោ": 2400,
    "ៅ": 2401,
    "ំ": 2402,
    "ះ": 2403,
    "់": 2404,
    "៏": 2405,
    "្": 2406,
    "។": 2407,
    "ៗ": 2408,
    "១": 2409,
    "៣": 2410,
    "᠆": 2411,
    "ᦈ": 2412,
    "᪔": 2413,
    "ᮣ": 2414,
    "ᴀ": 2415,
    "ᴄ": 2416,
    "ᴅ": 2417,
    "ᴇ": 2418,
    "ᴉ": 2419,
    "ᴊ": 2420,
    "ᴋ": 2421,
    "ᴍ": 2422,
    "ᴏ": 2423,
    "ᴓ": 2424,
    "ᴗ": 2425,
    "ᴘ": 2426,
    "ᴚ": 2427,
    "ᴛ": 2428,
    "ᴜ": 2429,
    "ᴠ": 2430,
    "ᴡ": 2431,
    "ᴢ": 2432,
    "ᴥ": 2433,
    "ᴦ": 2434,
    "ᴧ": 2435,
    "ᴹ": 2436,
    "ᵀ": 2437,
    "ᵃ": 2438,
    "ᵄ": 2439,
    "ᵇ": 2440,
    "ᵈ": 2441,
    "ᵉ": 2442,
    "ᵌ": 2443,
    "ᵏ": 2444,
    "ᵐ": 2445,
    "ᵑ": 2446,
    "ᵒ": 2447,
    "ᵕ": 2448,
    "ᵖ": 2449,
    "ᵗ": 2450,
    "ᵘ": 2451,
    "ᵟ": 2452,
    "ᵢ": 2453,
    "ᵣ": 2454,
    "ᵤ": 2455,
    "ᵥ": 2456,
    "ᵦ": 2457,
    "ᵧ": 2458,
    "ᵯ": 2459,
    "ᵴ": 2460,
    "ᵾ": 2461,
    "ᶆ": 2462,
    "ᶉ": 2463,
    "ᶙ": 2464,
    "ᶢ": 2465,
    "ᶲ": 2466,
    "ᶻ": 2467,
    "᷉": 2468,
    "ḅ": 2469,
    "ḋ": 2470,
    "Ḍ": 2471,
    "ḍ": 2472,
    "ḏ": 2473,
    "ḗ": 2474,
    "Ḟ": 2475,
    "ḟ": 2476,
    "Ḡ": 2477,
    "ḡ": 2478,
    "Ḣ": 2479,
    "Ḥ": 2480,
    "ḥ": 2481,
    "ḧ": 2482,
    "Ḩ": 2483,
    "ḩ": 2484,
    "ḫ": 2485,
    "Ḱ": 2486,
    "ḱ": 2487,
    "ḳ": 2488,
    "Ḵ": 2489,
    "ḵ": 2490,
    "ḷ": 2491,
    "ḻ": 2492,
    "Ḽ": 2493,
    "ḿ": 2494,
    "Ṁ": 2495,
    "ṁ": 2496,
    "Ṃ": 2497,
    "ṃ": 2498,
    "ṅ": 2499,
    "Ṇ": 2500,
    "ṇ": 2501,
    "Ṉ": 2502,
    "ṉ": 2503,
    "ṓ": 2504,
    "ṕ": 2505,
    "ṗ": 2506,
    "Ṙ": 2507,
    "ṙ": 2508,
    "ṛ": 2509,
    "ṝ": 2510,
    "ṟ": 2511,
    "Ṡ": 2512,
    "ṡ": 2513,
    "Ṣ": 2514,
    "ṣ": 2515,
    "Ṭ": 2516,
    "ṭ": 2517,
    "Ṯ": 2518,
    "ṯ": 2519,
    "ṽ": 2520,
    "Ṿ": 2521,
    "ṿ": 2522,
    "ẃ": 2523,
    "Ẇ": 2524,
    "ẇ": 2525,
    "Ẉ": 2526,
    "ẋ": 2527,
    "Ẍ": 2528,
    "ẏ": 2529,
    "ẑ": 2530,
    "Ẓ": 2531,
    "ẓ": 2532,
    "ẗ": 2533,
    "ẘ": 2534,
    "ẞ": 2535,
    "ẟ": 2536,
    "Ạ": 2537,
    "ạ": 2538,
    "Ả": 2539,
    "ả": 2540,
    "Ấ": 2541,
    "ấ": 2542,
    "Ầ": 2543,
    "ầ": 2544,
    "Ẩ": 2545,
    "ẩ": 2546,
    "Ẫ": 2547,
    "ẫ": 2548,
    "Ậ": 2549,
    "ậ": 2550,
    "Ắ": 2551,
    "ắ": 2552,
    "Ằ": 2553,
    "ằ": 2554,
    "Ẳ": 2555,
    "ẳ": 2556,
    "Ẵ": 2557,
    "ẵ": 2558,
    "Ặ": 2559,
    "ặ": 2560,
    "Ẹ": 2561,
    "ẹ": 2562,
    "Ẻ": 2563,
    "ẻ": 2564,
    "Ẽ": 2565,
    "ẽ": 2566,
    "Ế": 2567,
    "ế": 2568,
    "Ề": 2569,
    "ề": 2570,
    "Ể": 2571,
    "ể": 2572,
    "Ễ": 2573,
    "ễ": 2574,
    "Ệ": 2575,
    "ệ": 2576,
    "Ỉ": 2577,
    "ỉ": 2578,
    "Ị": 2579,
    "ị": 2580,
    "Ọ": 2581,
    "ọ": 2582,
    "Ỏ": 2583,
    "ỏ": 2584,
    "Ố": 2585,
    "ố": 2586,
    "Ồ": 2587,
    "ồ": 2588,
    "Ổ": 2589,
    "ổ": 2590,
    "Ỗ": 2591,
    "ỗ": 2592,
    "Ộ": 2593,
    "ộ": 2594,
    "Ớ": 2595,
    "ớ": 2596,
    "Ờ": 2597,
    "ờ": 2598,
    "Ở": 2599,
    "ở": 2600,
    "Ỡ": 2601,
    "ỡ": 2602,
    "Ợ": 2603,
    "ợ": 2604,
    "Ụ": 2605,
    "ụ": 2606,
    "Ủ": 2607,
    "ủ": 2608,
    "Ứ": 2609,
    "ứ": 2610,
    "Ừ": 2611,
    "ừ": 2612,
    "Ử": 2613,
    "ử": 2614,
    "Ữ": 2615,
    "ữ": 2616,
    "Ự": 2617,
    "ự": 2618,
    "Ỳ": 2619,
    "ỳ": 2620,
    "Ỵ": 2621,
    "ỵ": 2622,
    "Ỷ": 2623,
    "ỷ": 2624,
    "Ỹ": 2625,
    "ỹ": 2626,
    "ἀ": 2627,
    "ἁ": 2628,
    "ἂ": 2629,
    "ἃ": 2630,
    "ἄ": 2631,
    "ἅ": 2632,
    "ἆ": 2633,
    "ἇ": 2634,
    "Ἀ": 2635,
    "Ἁ": 2636,
    "Ἂ": 2637,
    "Ἃ": 2638,
    "Ἄ": 2639,
    "Ἅ": 2640,
    "Ἆ": 2641,
    "Ἇ": 2642,
    "ἐ": 2643,
    "ἑ": 2644,
    "ἒ": 2645,
    "ἓ": 2646,
    "ἔ": 2647,
    "ἕ": 2648,
    "Ἐ": 2649,
    "Ἑ": 2650,
    "Ἒ": 2651,
    "Ἓ": 2652,
    "Ἔ": 2653,
    "Ἕ": 2654,
    "ἠ": 2655,
    "ἡ": 2656,
    "ἢ": 2657,
    "ἣ": 2658,
    "ἤ": 2659,
    "ἥ": 2660,
    "ἦ": 2661,
    "ἧ": 2662,
    "Ἠ": 2663,
    "Ἡ": 2664,
    "Ἢ": 2665,
    "Ἣ": 2666,
    "Ἤ": 2667,
    "Ἥ": 2668,
    "Ἦ": 2669,
    "Ἧ": 2670,
    "ἰ": 2671,
    "ἱ": 2672,
    "ἲ": 2673,
    "ἳ": 2674,
    "ἴ": 2675,
    "ἵ": 2676,
    "ἶ": 2677,
    "ἷ": 2678,
    "Ἰ": 2679,
    "Ἱ": 2680,
    "Ἲ": 2681,
    "Ἳ": 2682,
    "Ἴ": 2683,
    "Ἵ": 2684,
    "Ἶ": 2685,
    "Ἷ": 2686,
    "ὀ": 2687,
    "ὁ": 2688,
    "ὂ": 2689,
    "ὃ": 2690,
    "ὄ": 2691,
    "ὅ": 2692,
    "Ὀ": 2693,
    "Ὁ": 2694,
    "Ὂ": 2695,
    "Ὃ": 2696,
    "Ὄ": 2697,
    "Ὅ": 2698,
    "ὐ": 2699,
    "ὑ": 2700,
    "ὒ": 2701,
    "ὓ": 2702,
    "ὔ": 2703,
    "ὕ": 2704,
    "ὖ": 2705,
    "ὗ": 2706,
    "Ὑ": 2707,
    "Ὓ": 2708,
    "Ὕ": 2709,
    "Ὗ": 2710,
    "ὠ": 2711,
    "ὡ": 2712,
    "ὢ": 2713,
    "ὣ": 2714,
    "ὤ": 2715,
    "ὥ": 2716,
    "ὦ": 2717,
    "ὧ": 2718,
    "Ὠ": 2719,
    "Ὡ": 2720,
    "Ὢ": 2721,
    "Ὣ": 2722,
    "Ὤ": 2723,
    "Ὥ": 2724,
    "Ὦ": 2725,
    "Ὧ": 2726,
    "ὰ": 2727,
    "ά": 2728,
    "ὲ": 2729,
    "έ": 2730,
    "ὴ": 2731,
    "ή": 2732,
    "ὶ": 2733,
    "ί": 2734,
    "ὸ": 2735,
    "ό": 2736,
    "ὺ": 2737,
    "ύ": 2738,
    "ὼ": 2739,
    "ώ": 2740,
    "ᾀ": 2741,
    "ᾁ": 2742,
    "ᾂ": 2743,
    "ᾃ": 2744,
    "ᾄ": 2745,
    "ᾅ": 2746,
    "ᾆ": 2747,
    "ᾇ": 2748,
    "ᾈ": 2749,
    "ᾉ": 2750,
    "ᾊ": 2751,
    "ᾋ": 2752,
    "ᾌ": 2753,
    "ᾍ": 2754,
    "ᾎ": 2755,
    "ᾏ": 2756,
    "ᾐ": 2757,
    "ᾑ": 2758,
    "ᾒ": 2759,
    "ᾓ": 2760,
    "ᾔ": 2761,
    "ᾕ": 2762,
    "ᾖ": 2763,
    "ᾗ": 2764,
    "ᾘ": 2765,
    "ᾙ": 2766,
    "ᾚ": 2767,
    "ᾛ": 2768,
    "ᾜ": 2769,
    "ᾝ": 2770,
    "ᾞ": 2771,
    "ᾟ": 2772,
    "ᾠ": 2773,
    "ᾡ": 2774,
    "ᾢ": 2775,
    "ᾣ": 2776,
    "ᾤ": 2777,
    "ᾥ": 2778,
    "ᾦ": 2779,
    "ᾧ": 2780,
    "ᾨ": 2781,
    "ᾩ": 2782,
    "ᾪ": 2783,
    "ᾫ": 2784,
    "ᾬ": 2785,
    "ᾭ": 2786,
    "ᾮ": 2787,
    "ᾯ": 2788,
    "ᾰ": 2789,
    "ᾱ": 2790,
    "ᾲ": 2791,
    "ᾳ": 2792,
    "ᾴ": 2793,
    "ᾶ": 2794,
    "ᾷ": 2795,
    "Ᾰ": 2796,
    "Ᾱ": 2797,
    "Ὰ": 2798,
    "Ά": 2799,
    "ᾼ": 2800,
    "᾽": 2801,
    "᾿": 2802,
    "ῂ": 2803,
    "ῃ": 2804,
    "ῄ": 2805,
    "ῆ": 2806,
    "ῇ": 2807,
    "Ὲ": 2808,
    "Έ": 2809,
    "Ὴ": 2810,
    "Ή": 2811,
    "ῌ": 2812,
    "ῐ": 2813,
    "ῑ": 2814,
    "ῒ": 2815,
    "ΐ": 2816,
    "ῖ": 2817,
    "ῗ": 2818,
    "Ῐ": 2819,
    "Ῑ": 2820,
    "Ὶ": 2821,
    "Ί": 2822,
    "ῠ": 2823,
    "ῢ": 2824,
    "ΰ": 2825,
    "ῤ": 2826,
    "ῥ": 2827,
    "ῦ": 2828,
    "ῧ": 2829,
    "Ῠ": 2830,
    "Ῡ": 2831,
    "Ὺ": 2832,
    "Ύ": 2833,
    "Ῥ": 2834,
    "ῲ": 2835,
    "ῳ": 2836,
    "ῴ": 2837,
    "ῶ": 2838,
    "ῷ": 2839,
    "Ὸ": 2840,
    "Ό": 2841,
    "Ὼ": 2842,
    "Ώ": 2843,
    "ῼ": 2844,
    "´": 2845,
    " ": 2846,
    " ": 2847,
    " ": 2848,
    " ": 2849,
    " ": 2850,
    " ": 2851,
    " ": 2852,
    " ": 2853,
    " ": 2854,
    " ": 2855,
    " ": 2856,
    "​": 2857,
    "‌": 2858,
    "‍": 2859,
    "‎": 2860,
    "‏": 2861,
    "‐": 2862,
    "‑": 2863,
    "‒": 2864,
    "–": 2865,
    "—": 2866,
    "―": 2867,
    "‖": 2868,
    "‗": 2869,
    "‘": 2870,
    "’": 2871,
    "‚": 2872,
    "‛": 2873,
    "“": 2874,
    "”": 2875,
    "„": 2876,
    "‟": 2877,
    "†": 2878,
    "‡": 2879,
    "•": 2880,
    "‣": 2881,
    "․": 2882,
    "‥": 2883,
    "…": 2884,
    "‧": 2885,
    " ": 2886,
    " ": 2887,
    "‪": 2888,
    "‫": 2889,
    "‬": 2890,
    "‭": 2891,
    "‮": 2892,
    " ": 2893,
    "‰": 2894,
    "‱": 2895,
    "′": 2896,
    "″": 2897,
    "‴": 2898,
    "‶": 2899,
    "‸": 2900,
    "‹": 2901,
    "›": 2902,
    "※": 2903,
    "‼": 2904,
    "‽": 2905,
    "‾": 2906,
    "‿": 2907,
    "⁂": 2908,
    "⁃": 2909,
    "⁄": 2910,
    "⁆": 2911,
    "⁉": 2912,
    "⁕": 2913,
    "⁗": 2914,
    "⁚": 2915,
    "⁛": 2916,
    "⁝": 2917,
    "⁞": 2918,
    " ": 2919,
    "⁠": 2920,
    "⁡": 2921,
    "⁢": 2922,
    "⁣": 2923,
    "⁦": 2924,
    "⁨": 2925,
    "⁩": 2926,
    "⁮": 2927,
    "⁰": 2928,
    "ⁱ": 2929,
    "⁲": 2930,
    "⁴": 2931,
    "⁵": 2932,
    "⁶": 2933,
    "⁷": 2934,
    "⁸": 2935,
    "⁹": 2936,
    "⁺": 2937,
    "⁻": 2938,
    "⁼": 2939,
    "⁽": 2940,
    "⁾": 2941,
    "ⁿ": 2942,
    "₀": 2943,
    "₁": 2944,
    "₂": 2945,
    "₃": 2946,
    "₄": 2947,
    "₅": 2948,
    "₆": 2949,
    "₇": 2950,
    "₈": 2951,
    "₉": 2952,
    "₊": 2953,
    "₋": 2954,
    "₌": 2955,
    "₍": 2956,
    "₎": 2957,
    "ₐ": 2958,
    "ₑ": 2959,
    "ₒ": 2960,
    "ₓ": 2961,
    "ₔ": 2962,
    "ₕ": 2963,
    "ₖ": 2964,
    "ₗ": 2965,
    "ₘ": 2966,
    "ₙ": 2967,
    "ₚ": 2968,
    "ₛ": 2969,
    "ₜ": 2970,
    "₡": 2971,
    "₦": 2972,
    "₨": 2973,
    "₩": 2974,
    "₪": 2975,
    "₫": 2976,
    "€": 2977,
    "₯": 2978,
    "₱": 2979,
    "₳": 2980,
    "₴": 2981,
    "₵": 2982,
    "₹": 2983,
    "₺": 2984,
    "₽": 2985,
    "₿": 2986,
    "⃑": 2987,
    "⃗": 2988,
    "⃝": 2989,
    "⃞": 2990,
    "⃠": 2991,
    "⃡": 2992,
    "⃣": 2993,
    "⃩": 2994,
    "⃪": 2995,
    "ℂ": 2996,
    "℃": 2997,
    "℅": 2998,
    "℈": 2999,
    "℉": 3000,
    "ℋ": 3001,
    "ℍ": 3002,
    "ℎ": 3003,
    "ℏ": 3004,
    "ℑ": 3005,
    "ℒ": 3006,
    "ℓ": 3007,
    "℔": 3008,
    "ℕ": 3009,
    "№": 3010,
    "℗": 3011,
    "℘": 3012,
    "ℙ": 3013,
    "ℚ": 3014,
    "ℛ": 3015,
    "ℜ": 3016,
    "ℝ": 3017,
    "℠": 3018,
    "™": 3019,
    "℣": 3020,
    "ℤ": 3021,
    "℥": 3022,
    "Ω": 3023,
    "℧": 3024,
    "ℨ": 3025,
    "℩": 3026,
    "Å": 3027,
    "ℯ": 3028,
    "ℰ": 3029,
    "ℱ": 3030,
    "Ⅎ": 3031,
    "ℳ": 3032,
    "ℴ": 3033,
    "ℵ": 3034,
    "ℶ": 3035,
    "ℷ": 3036,
    "ℸ": 3037,
    "ℹ": 3038,
    "ℼ": 3039,
    "ℽ": 3040,
    "⅀": 3041,
    "ⅆ": 3042,
    "ⅇ": 3043,
    "ⅈ": 3044,
    "⅋": 3045,
    "⅑": 3046,
    "⅓": 3047,
    "⅔": 3048,
    "⅕": 3049,
    "⅖": 3050,
    "⅗": 3051,
    "⅘": 3052,
    "⅙": 3053,
    "⅚": 3054,
    "⅛": 3055,
    "⅜": 3056,
    "⅝": 3057,
    "⅞": 3058,
    "⅟": 3059,
    "Ⅰ": 3060,
    "Ⅱ": 3061,
    "Ⅲ": 3062,
    "Ⅳ": 3063,
    "Ⅴ": 3064,
    "Ⅶ": 3065,
    "Ⅷ": 3066,
    "Ⅹ": 3067,
    "Ⅻ": 3068,
    "ⅰ": 3069,
    "ⅱ": 3070,
    "ⅲ": 3071,
    "ⅴ": 3072,
    "ⅹ": 3073,
    "ⅻ": 3074,
    "←": 3075,
    "↑": 3076,
    "→": 3077,
    "↓": 3078,
    "↔": 3079,
    "↕": 3080,
    "↖": 3081,
    "↗": 3082,
    "↘": 3083,
    "↙": 3084,
    "↛": 3085,
    "↜": 3086,
    "↠": 3087,
    "↣": 3088,
    "↤": 3089,
    "↥": 3090,
    "↦": 3091,
    "↨": 3092,
    "↩": 3093,
    "↪": 3094,
    "↮": 3095,
    "↳": 3096,
    "↴": 3097,
    "↵": 3098,
    "↸": 3099,
    "↹": 3100,
    "↺": 3101,
    "↻": 3102,
    "↼": 3103,
    "↾": 3104,
    "⇀": 3105,
    "⇁": 3106,
    "⇄": 3107,
    "⇆": 3108,
    "⇋": 3109,
    "⇌": 3110,
    "⇐": 3111,
    "⇑": 3112,
    "⇒": 3113,
    "⇓": 3114,
    "⇔": 3115,
    "⇖": 3116,
    "⇛": 3117,
    "⇝": 3118,
    "⇞": 3119,
    "⇟": 3120,
    "⇠": 3121,
    "⇡": 3122,
    "⇢": 3123,
    "⇣": 3124,
    "⇤": 3125,
    "⇥": 3126,
    "⇦": 3127,
    "⇧": 3128,
    "⇨": 3129,
    "⇩": 3130,
    "⇪": 3131,
    "⇱": 3132,
    "⇲": 3133,
    "⇸": 3134,
    "⇾": 3135,
    "∀": 3136,
    "∁": 3137,
    "∂": 3138,
    "∃": 3139,
    "∄": 3140,
    "∅": 3141,
    "∆": 3142,
    "∇": 3143,
    "∈": 3144,
    "∉": 3145,
    "∊": 3146,
    "∋": 3147,
    "∌": 3148,
    "∍": 3149,
    "∎": 3150,
    "∏": 3151,
    "∐": 3152,
    "∑": 3153,
    "−": 3154,
    "∓": 3155,
    "∔": 3156,
    "∕": 3157,
    "∖": 3158,
    "∗": 3159,
    "∘": 3160,
    "∙": 3161,
    "√": 3162,
    "∛": 3163,
    "∜": 3164,
    "∝": 3165,
    "∞": 3166,
    "∟": 3167,
    "∠": 3168,
    "∡": 3169,
    "∢": 3170,
    "∣": 3171,
    "∤": 3172,
    "∥": 3173,
    "∦": 3174,
    "∧": 3175,
    "∨": 3176,
    "∩": 3177,
    "∪": 3178,
    "∫": 3179,
    "∬": 3180,
    "∭": 3181,
    "∮": 3182,
    "∯": 3183,
    "∰": 3184,
    "∴": 3185,
    "∵": 3186,
    "∶": 3187,
    "∷": 3188,
    "∻": 3189,
    "∼": 3190,
    "∽": 3191,
    "∿": 3192,
    "≀": 3193,
    "≁": 3194,
    "≃": 3195,
    "≅": 3196,
    "≈": 3197,
    "≋": 3198,
    "≌": 3199,
    "≒": 3200,
    "≓": 3201,
    "≔": 3202,
    "≕": 3203,
    "≙": 3204,
    "≜": 3205,
    "≝": 3206,
    "≟": 3207,
    "≠": 3208,
    "≡": 3209,
    "≢": 3210,
    "≣": 3211,
    "≤": 3212,
    "≥": 3213,
    "≦": 3214,
    "≧": 3215,
    "≨": 3216,
    "≩": 3217,
    "≪": 3218,
    "≫": 3219,
    "≬": 3220,
    "≮": 3221,
    "≯": 3222,
    "≲": 3223,
    "≴": 3224,
    "≺": 3225,
    "≻": 3226,
    "≼": 3227,
    "≽": 3228,
    "≾": 3229,
    "⊂": 3230,
    "⊃": 3231,
    "⊄": 3232,
    "⊅": 3233,
    "⊆": 3234,
    "⊇": 3235,
    "⊈": 3236,
    "⊊": 3237,
    "⊋": 3238,
    "⊎": 3239,
    "⊏": 3240,
    "⊐": 3241,
    "⊑": 3242,
    "⊒": 3243,
    "⊓": 3244,
    "⊔": 3245,
    "⊕": 3246,
    "⊖": 3247,
    "⊗": 3248,
    "⊘": 3249,
    "⊙": 3250,
    "⊛": 3251,
    "⊜": 3252,
    "⊞": 3253,
    "⊟": 3254,
    "⊢": 3255,
    "⊣": 3256,
    "⊤": 3257,
    "⊥": 3258,
    "⊦": 3259,
    "⊧": 3260,
    "⊨": 3261,
    "⊩": 3262,
    "⊭": 3263,
    "⊰": 3264,
    "⊱": 3265,
    "⊲": 3266,
    "⊳": 3267,
    "⊸": 3268,
    "⊺": 3269,
    "⊻": 3270,
    "⊼": 3271,
    "⊽": 3272,
    "⊾": 3273,
    "⊿": 3274,
    "⋀": 3275,
    "⋁": 3276,
    "⋂": 3277,
    "⋃": 3278,
    "⋄": 3279,
    "⋅": 3280,
    "⋆": 3281,
    "⋇": 3282,
    "⋈": 3283,
    "⋊": 3284,
    "⋓": 3285,
    "⋕": 3286,
    "⋘": 3287,
    "⋮": 3288,
    "⋯": 3289,
    "⋰": 3290,
    "⋱": 3291,
    "⋺": 3292,
    "⋿": 3293,
    "⌀": 3294,
    "⌁": 3295,
    "⌃": 3296,
    "⌄": 3297,
    "⌅": 3298,
    "⌈": 3299,
    "⌉": 3300,
    "⌊": 3301,
    "⌋": 3302,
    "⌐": 3303,
    "⌒": 3304,
    "⌖": 3305,
    "⌘": 3306,
    "⌚": 3307,
    "⌛": 3308,
    "⌜": 3309,
    "⌝": 3310,
    "⌞": 3311,
    "⌟": 3312,
    "⌠": 3313,
    "⌡": 3314,
    "⌣": 3315,
    "⌥": 3316,
    "⌦": 3317,
    "⌧": 3318,
    "⌨": 3319,
    "〈": 3320,
    "〉": 3321,
    "⌫": 3322,
    "⌷": 3323,
    "⌹": 3324,
    "⌺": 3325,
    "⌻": 3326,
    "⌽": 3327,
    "⌾": 3328,
    "⌿": 3329,
    "⍀": 3330,
    "⍉": 3331,
    "⍋": 3332,
    "⍎": 3333,
    "⍒": 3334,
    "⍕": 3335,
    "⍘": 3336,
    "⍙": 3337,
    "⍛": 3338,
    "⍝": 3339,
    "⍞": 3340,
    "⍟": 3341,
    "⍠": 3342,
    "⍡": 3343,
    "⍢": 3344,
    "⍣": 3345,
    "⍤": 3346,
    "⍥": 3347,
    "⍦": 3348,
    "⍨": 3349,
    "⍪": 3350,
    "⍬": 3351,
    "⍱": 3352,
    "⍲": 3353,
    "⍳": 3354,
    "⍴": 3355,
    "⍵": 3356,
    "⍷": 3357,
    "⍸": 3358,
    "⍺": 3359,
    "⎇": 3360,
    "⎕": 3361,
    "⎙": 3362,
    "⎛": 3363,
    "⎜": 3364,
    "⎝": 3365,
    "⎞": 3366,
    "⎟": 3367,
    "⎠": 3368,
    "⎡": 3369,
    "⎢": 3370,
    "⎣": 3371,
    "⎤": 3372,
    "⎥": 3373,
    "⎦": 3374,
    "⎧": 3375,
    "⎨": 3376,
    "⎩": 3377,
    "⎪": 3378,
    "⎫": 3379,
    "⎬": 3380,
    "⎭": 3381,
    "⎮": 3382,
    "⎯": 3383,
    "⎷": 3384,
    "⎺": 3385,
    "⎻": 3386,
    "⎼": 3387,
    "⎽": 3388,
    "⏊": 3389,
    "⏎": 3390,
    "⏐": 3391,
    "⏘": 3392,
    "⏟": 3393,
    "⏨": 3394,
    "⏩": 3395,
    "⏪": 3396,
    "⏬": 3397,
    "⏭": 3398,
    "⏮": 3399,
    "⏰": 3400,
    "⏱": 3401,
    "⏲": 3402,
    "⏳": 3403,
    "⏷": 3404,
    "⏸": 3405,
    "⏹": 3406,
    "⏺": 3407,
    "⏽": 3408,
    "␆": 3409,
    "␉": 3410,
    "␠": 3411,
    "␣": 3412,
    "␧": 3413,
    "␲": 3414,
    "①": 3415,
    "②": 3416,
    "③": 3417,
    "④": 3418,
    "⑤": 3419,
    "⑥": 3420,
    "⑦": 3421,
    "⑧": 3422,
    "⑨": 3423,
    "⑱": 3424,
    "Ⓒ": 3425,
    "Ⓜ": 3426,
    "Ⓡ": 3427,
    "Ⓣ": 3428,
    "ⓐ": 3429,
    "ⓑ": 3430,
    "ⓒ": 3431,
    "ⓘ": 3432,
    "ⓡ": 3433,
    "─": 3434,
    "━": 3435,
    "│": 3436,
    "┃": 3437,
    "┈": 3438,
    "┌": 3439,
    "┍": 3440,
    "┎": 3441,
    "┏": 3442,
    "┐": 3443,
    "┑": 3444,
    "┒": 3445,
    "┓": 3446,
    "└": 3447,
    "┕": 3448,
    "┖": 3449,
    "┗": 3450,
    "┘": 3451,
    "┙": 3452,
    "┚": 3453,
    "┛": 3454,
    "├": 3455,
    "┝": 3456,
    "┞": 3457,
    "┟": 3458,
    "┠": 3459,
    "┡": 3460,
    "┢": 3461,
    "┣": 3462,
    "┤": 3463,
    "┥": 3464,
    "┦": 3465,
    "┧": 3466,
    "┨": 3467,
    "┩": 3468,
    "┪": 3469,
    "┫": 3470,
    "┬": 3471,
    "┭": 3472,
    "┮": 3473,
    "┯": 3474,
    "┰": 3475,
    "┱": 3476,
    "┲": 3477,
    "┳": 3478,
    "┴": 3479,
    "┵": 3480,
    "┶": 3481,
    "┷": 3482,
    "┸": 3483,
    "┹": 3484,
    "┺": 3485,
    "┻": 3486,
    "┼": 3487,
    "┽": 3488,
    "┾": 3489,
    "┿": 3490,
    "╀": 3491,
    "╁": 3492,
    "╂": 3493,
    "╃": 3494,
    "╄": 3495,
    "╅": 3496,
    "╆": 3497,
    "╇": 3498,
    "╈": 3499,
    "╉": 3500,
    "╊": 3501,
    "╋": 3502,
    "╎": 3503,
    "═": 3504,
    "║": 3505,
    "╒": 3506,
    "╓": 3507,
    "╔": 3508,
    "╕": 3509,
    "╖": 3510,
    "╗": 3511,
    "╘": 3512,
    "╙": 3513,
    "╚": 3514,
    "╛": 3515,
    "╜": 3516,
    "╝": 3517,
    "╞": 3518,
    "╟": 3519,
    "╠": 3520,
    "╡": 3521,
    "╢": 3522,
    "╣": 3523,
    "╤": 3524,
    "╥": 3525,
    "╦": 3526,
    "╧": 3527,
    "╨": 3528,
    "╩": 3529,
    "╪": 3530,
    "╫": 3531,
    "╬": 3532,
    "╭": 3533,
    "╮": 3534,
    "╯": 3535,
    "╰": 3536,
    "╱": 3537,
    "╲": 3538,
    "╴": 3539,
    "╵": 3540,
    "╶": 3541,
    "╷": 3542,
    "╸": 3543,
    "╹": 3544,
    "╺": 3545,
    "╻": 3546,
    "╼": 3547,
    "╽": 3548,
    "╾": 3549,
    "╿": 3550,
    "▀": 3551,
    "▁": 3552,
    "▂": 3553,
    "▃": 3554,
    "▄": 3555,
    "▅": 3556,
    "▆": 3557,
    "▇": 3558,
    "█": 3559,
    "▉": 3560,
    "▊": 3561,
    "▋": 3562,
    "▌": 3563,
    "▍": 3564,
    "▎": 3565,
    "▏": 3566,
    "▐": 3567,
    "░": 3568,
    "▒": 3569,
    "▓": 3570,
    "▔": 3571,
    "▖": 3572,
    "▗": 3573,
    "▘": 3574,
    "▙": 3575,
    "▚": 3576,
    "▛": 3577,
    "▜": 3578,
    "▝": 3579,
    "▞": 3580,
    "▟": 3581,
    "■": 3582,
    "□": 3583,
    "▢": 3584,
    "▣": 3585,
    "▪": 3586,
    "▫": 3587,
    "▬": 3588,
    "▭": 3589,
    "▯": 3590,
    "▱": 3591,
    "▲": 3592,
    "△": 3593,
    "▵": 3594,
    "▶": 3595,
    "▷": 3596,
    "▸": 3597,
    "▹": 3598,
    "►": 3599,
    "▼": 3600,
    "▽": 3601,
    "▾": 3602,
    "◀": 3603,
    "◁": 3604,
    "◂": 3605,
    "◃": 3606,
    "◄": 3607,
    "◆": 3608,
    "◇": 3609,
    "◈": 3610,
    "◉": 3611,
    "◊": 3612,
    "○": 3613,
    "◌": 3614,
    "◎": 3615,
    "●": 3616,
    "◐": 3617,
    "◑": 3618,
    "◒": 3619,
    "◓": 3620,
    "◕": 3621,
    "◘": 3622,
    "◙": 3623,
    "◡": 3624,
    "◢": 3625,
    "◤": 3626,
    "◦": 3627,
    "◮": 3628,
    "◯": 3629,
    "◴": 3630,
    "◵": 3631,
    "◶": 3632,
    "◷": 3633,
    "◻": 3634,
    "◼": 3635,
    "◾": 3636,
    "☀": 3637,
    "☁": 3638,
    "☃": 3639,
    "★": 3640,
    "☆": 3641,
    "☉": 3642,
    "☊": 3643,
    "☎": 3644,
    "☐": 3645,
    "☑": 3646,
    "☒": 3647,
    "☕": 3648,
    "☘": 3649,
    "☚": 3650,
    "☛": 3651,
    "☜": 3652,
    "☝": 3653,
    "☞": 3654,
    "☠": 3655,
    "☢": 3656,
    "☣": 3657,
    "☭": 3658,
    "☮": 3659,
    "☯": 3660,
    "☰": 3661,
    "☹": 3662,
    "☺": 3663,
    "☻": 3664,
    "☼": 3665,
    "☾": 3666,
    "♀": 3667,
    "♂": 3668,
    "♃": 3669,
    "♈": 3670,
    "♉": 3671,
    "♊": 3672,
    "♋": 3673,
    "♌": 3674,
    "♍": 3675,
    "♎": 3676,
    "♏": 3677,
    "♐": 3678,
    "♑": 3679,
    "♒": 3680,
    "♓": 3681,
    "♔": 3682,
    "♕": 3683,
    "♖": 3684,
    "♗": 3685,
    "♘": 3686,
    "♙": 3687,
    "♚": 3688,
    "♛": 3689,
    "♜": 3690,
    "♝": 3691,
    "♞": 3692,
    "♟": 3693,
    "♠": 3694,
    "♡": 3695,
    "♢": 3696,
    "♣": 3697,
    "♤": 3698,
    "♥": 3699,
    "♦": 3700,
    "♨": 3701,
    "♩": 3702,
    "♪": 3703,
    "♫": 3704,
    "♬": 3705,
    "♭": 3706,
    "♮": 3707,
    "♯": 3708,
    "♱": 3709,
    "♻": 3710,
    "⚀": 3711,
    "⚁": 3712,
    "⚂": 3713,
    "⚃": 3714,
    "⚄": 3715,
    "⚅": 3716,
    "⚈": 3717,
    "⚊": 3718,
    "⚏": 3719,
    "⚐": 3720,
    "⚑": 3721,
    "⚒": 3722,
    "⚓": 3723,
    "⚔": 3724,
    "⚕": 3725,
    "⚖": 3726,
    "⚗": 3727,
    "⚘": 3728,
    "⚙": 3729,
    "⚛": 3730,
    "⚜": 3731,
    "⚠": 3732,
    "⚡": 3733,
    "⚪": 3734,
    "⚫": 3735,
    "⚬": 3736,
    "⚽": 3737,
    "⚾": 3738,
    "⛅": 3739,
    "⛈": 3740,
    "⛎": 3741,
    "⛏": 3742,
    "⛑": 3743,
    "⛓": 3744,
    "⛔": 3745,
    "⛧": 3746,
    "⛰": 3747,
    "⛲": 3748,
    "⛳": 3749,
    "⛶": 3750,
    "⛷": 3751,
    "⛸": 3752,
    "⛹": 3753,
    "⛺": 3754,
    "⛽": 3755,
    "✂": 3756,
    "✅": 3757,
    "✈": 3758,
    "✉": 3759,
    "✊": 3760,
    "✋": 3761,
    "✌": 3762,
    "✍": 3763,
    "✎": 3764,
    "✏": 3765,
    "✐": 3766,
    "✒": 3767,
    "✓": 3768,
    "✔": 3769,
    "✕": 3770,
    "✖": 3771,
    "✗": 3772,
    "✘": 3773,
    "✚": 3774,
    "✛": 3775,
    "✝": 3776,
    "✞": 3777,
    "✟": 3778,
    "✡": 3779,
    "✤": 3780,
    "✦": 3781,
    "✧": 3782,
    "✨": 3783,
    "✩": 3784,
    "✪": 3785,
    "✭": 3786,
    "✱": 3787,
    "✲": 3788,
    "✳": 3789,
    "✴": 3790,
    "✹": 3791,
    "✻": 3792,
    "✼": 3793,
    "✽": 3794,
    "✿": 3795,
    "❀": 3796,
    "❂": 3797,
    "❄": 3798,
    "❇": 3799,
    "❈": 3800,
    "❉": 3801,
    "❌": 3802,
    "❍": 3803,
    "❎": 3804,
    "❏": 3805,
    "❐": 3806,
    "❓": 3807,
    "❔": 3808,
    "❕": 3809,
    "❖": 3810,
    "❗": 3811,
    "❚": 3812,
    "❝": 3813,
    "❞": 3814,
    "❣": 3815,
    "❤": 3816,
    "❧": 3817,
    "❮": 3818,
    "❯": 3819,
    "❰": 3820,
    "❱": 3821,
    "❶": 3822,
    "❷": 3823,
    "❸": 3824,
    "❹": 3825,
    "❺": 3826,
    "❻": 3827,
    "❼": 3828,
    "➊": 3829,
    "➋": 3830,
    "➌": 3831,
    "➍": 3832,
    "➎": 3833,
    "➏": 3834,
    "➔": 3835,
    "➕": 3836,
    "➖": 3837,
    "➗": 3838,
    "➙": 3839,
    "➛": 3840,
    "➜": 3841,
    "➝": 3842,
    "➞": 3843,
    "➟": 3844,
    "➠": 3845,
    "➡": 3846,
    "➢": 3847,
    "➣": 3848,
    "➤": 3849,
    "➥": 3850,
    "➦": 3851,
    "➧": 3852,
    "➨": 3853,
    "➪": 3854,
    "➯": 3855,
    "➰": 3856,
    "⟂": 3857,
    "⟌": 3858,
    "⟙": 3859,
    "⟢": 3860,
    "⟦": 3861,
    "⟧": 3862,
    "⟨": 3863,
    "⟩": 3864,
    "⟬": 3865,
    "⟭": 3866,
    "⟳": 3867,
    "⟵": 3868,
    "⟶": 3869,
    "⟷": 3870,
    "⟸": 3871,
    "⟹": 3872,
    "⟺": 3873,
    "⟼": 3874,
    "⠀": 3875,
    "⠁": 3876,
    "⠂": 3877,
    "⠃": 3878,
    "⠄": 3879,
    "⠅": 3880,
    "⠆": 3881,
    "⠇": 3882,
    "⠈": 3883,
    "⠉": 3884,
    "⠊": 3885,
    "⠋": 3886,
    "⠌": 3887,
    "⠍": 3888,
    "⠎": 3889,
    "⠏": 3890,
    "⠐": 3891,
    "⠑": 3892,
    "⠒": 3893,
    "⠓": 3894,
    "⠔": 3895,
    "⠕": 3896,
    "⠖": 3897,
    "⠘": 3898,
    "⠙": 3899,
    "⠚": 3900,
    "⠛": 3901,
    "⠜": 3902,
    "⠟": 3903,
    "⠠": 3904,
    "⠢": 3905,
    "⠣": 3906,
    "⠤": 3907,
    "⠦": 3908,
    "⠧": 3909,
    "⠨": 3910,
    "⠪": 3911,
    "⠰": 3912,
    "⠱": 3913,
    "⠲": 3914,
    "⠴": 3915,
    "⠶": 3916,
    "⠷": 3917,
    "⠸": 3918,
    "⠹": 3919,
    "⠻": 3920,
    "⠼": 3921,
    "⠾": 3922,
    "⠿": 3923,
    "⡀": 3924,
    "⡁": 3925,
    "⡂": 3926,
    "⡃": 3927,
    "⡄": 3928,
    "⡅": 3929,
    "⡆": 3930,
    "⡇": 3931,
    "⡉": 3932,
    "⡎": 3933,
    "⡏": 3934,
    "⡔": 3935,
    "⡗": 3936,
    "⡜": 3937,
    "⡞": 3938,
    "⡟": 3939,
    "⡠": 3940,
    "⡤": 3941,
    "⡧": 3942,
    "⡭": 3943,
    "⡮": 3944,
    "⡯": 3945,
    "⡰": 3946,
    "⡱": 3947,
    "⡶": 3948,
    "⡸": 3949,
    "⡼": 3950,
    "⡿": 3951,
    "⢀": 3952,
    "⢄": 3953,
    "⢅": 3954,
    "⢆": 3955,
    "⢇": 3956,
    "⢈": 3957,
    "⢉": 3958,
    "⢎": 3959,
    "⢐": 3960,
    "⢕": 3961,
    "⢛": 3962,
    "⢠": 3963,
    "⢢": 3964,
    "⢣": 3965,
    "⢤": 3966,
    "⢧": 3967,
    "⢰": 3968,
    "⢱": 3969,
    "⢳": 3970,
    "⢴": 3971,
    "⢵": 3972,
    "⢶": 3973,
    "⢷": 3974,
    "⢸": 3975,
    "⢹": 3976,
    "⢺": 3977,
    "⢻": 3978,
    "⢼": 3979,
    "⢿": 3980,
    "⣀": 3981,
    "⣁": 3982,
    "⣄": 3983,
    "⣆": 3984,
    "⣇": 3985,
    "⣈": 3986,
    "⣉": 3987,
    "⣍": 3988,
    "⣏": 3989,
    "⣖": 3990,
    "⣝": 3991,
    "⣟": 3992,
    "⣠": 3993,
    "⣤": 3994,
    "⣦": 3995,
    "⣧": 3996,
    "⣩": 3997,
    "⣪": 3998,
    "⣫": 3999,
    "⣬": 4000,
    "⣭": 4001,
    "⣮": 4002,
    "⣯": 4003,
    "⣰": 4004,
    "⣱": 4005,
    "⣲": 4006,
    "⣳": 4007,
    "⣴": 4008,
    "⣵": 4009,
    "⣶": 4010,
    "⣷": 4011,
    "⣸": 4012,
    "⣹": 4013,
    "⣺": 4014,
    "⣻": 4015,
    "⣼": 4016,
    "⣽": 4017,
    "⣾": 4018,
    "⣿": 4019,
    "⤠": 4020,
    "⤬": 4021,
    "⤴": 4022,
    "⤵": 4023,
    "⤶": 4024,
    "⦁": 4025,
    "⦅": 4026,
    "⦆": 4027,
    "⦋": 4028,
    "⦟": 4029,
    "⧩": 4030,
    "⧫": 4031,
    "⧸": 4032,
    "⧼": 4033,
    "⧽": 4034,
    "⨀": 4035,
    "⨁": 4036,
    "⨉": 4037,
    "⨊": 4038,
    "⨯": 4039,
    "⩽": 4040,
    "⩾": 4041,
    "⪪": 4042,
    "⪯": 4043,
    "⪰": 4044,
    "⫅": 4045,
    "⫛": 4046,
    "⫤": 4047,
    "⫼": 4048,
    "⫽": 4049,
    "⬅": 4050,
    "⬆": 4051,
    "⬇": 4052,
    "⬌": 4053,
    "⬍": 4054,
    "⬚": 4055,
    "⬛": 4056,
    "⬜": 4057,
    "⬠": 4058,
    "⬡": 4059,
    "⭅": 4060,
    "⭆": 4061,
    "⭐": 4062,
    "⭑": 4063,
    "⭕": 4064,
    "⭨": 4065,
    "⮌": 4066,
    "⮕": 4067,
    "⮚": 4068,
    "⮞": 4069,
    "⮟": 4070,
    "⮧": 4071,
    "Ⱐ": 4072,
    "Ᵽ": 4073,
    "ⱨ": 4074,
    "Ɱ": 4075,
    "Ɐ": 4076,
    "ⱱ": 4077,
    "ⱳ": 4078,
    "ⱼ": 4079,
    "ⲇ": 4080,
    "Ⲏ": 4081,
    "Ⲓ": 4082,
    "ⲓ": 4083,
    "Ⲙ": 4084,
    "ⲡ": 4085,
    "Ⲥ": 4086,
    "ⴄ": 4087,
    "ⴚ": 4088,
    "ⴛ": 4089,
    "ⴜ": 4090,
    "ⴝ": 4091,
    "⴮": 4092,
    "ⵏ": 4093,
    "ⵑ": 4094,
    "⸌": 4095,
    "⸦": 4096,
    "⸫": 4097,
    "⸮": 4098,
    "⸺": 4099,
    "⸻": 4100,
    "⸽": 4101,
    "⺞": 4102,
    "⺢": 4103,
    "⼀": 4104,
    "⼤": 4105,
    "⼩": 4106,
    "⽅": 4107,
    "⽤": 4108,
    "⾓": 4109,
    "⾼": 4110,
    "⿰": 4111,
    "⿱": 4112,
    "⿲": 4113,
    "⿳": 4114,
    "⿴": 4115,
    "⿵": 4116,
    "⿶": 4117,
    "⿷": 4118,
    "⿸": 4119,
    "⿹": 4120,
    "⿺": 4121,
    "⿻": 4122,
    "　": 4123,
    "、": 4124,
    "。": 4125,
    "〃": 4126,
    "々": 4127,
    "〇": 4128,
    "〈": 4129,
    "〉": 4130,
    "《": 4131,
    "》": 4132,
    "「": 4133,
    "」": 4134,
    "『": 4135,
    "』": 4136,
    "【": 4137,
    "】": 4138,
    "〔": 4139,
    "〕": 4140,
    "〖": 4141,
    "〗": 4142,
    "〘": 4143,
    "〙": 4144,
    "〚": 4145,
    "〛": 4146,
    "〜": 4147,
    "〝": 4148,
    "〞": 4149,
    "〟": 4150,
    "〫": 4151,
    "〰": 4152,
    "〾": 4153,
    "〿": 4154,
    "ぁ": 4155,
    "あ": 4156,
    "ぃ": 4157,
    "い": 4158,
    "ぅ": 4159,
    "う": 4160,
    "ぇ": 4161,
    "え": 4162,
    "ぉ": 4163,
    "お": 4164,
    "か": 4165,
    "が": 4166,
    "き": 4167,
    "ぎ": 4168,
    "く": 4169,
    "ぐ": 4170,
    "け": 4171,
    "げ": 4172,
    "こ": 4173,
    "ご": 4174,
    "さ": 4175,
    "ざ": 4176,
    "し": 4177,
    "じ": 4178,
    "す": 4179,
    "ず": 4180,
    "せ": 4181,
    "ぜ": 4182,
    "そ": 4183,
    "ぞ": 4184,
    "た": 4185,
    "だ": 4186,
    "ち": 4187,
    "ぢ": 4188,
    "っ": 4189,
    "つ": 4190,
    "づ": 4191,
    "て": 4192,
    "で": 4193,
    "と": 4194,
    "ど": 4195,
    "な": 4196,
    "に": 4197,
    "ぬ": 4198,
    "ね": 4199,
    "の": 4200,
    "は": 4201,
    "ば": 4202,
    "ぱ": 4203,
    "ひ": 4204,
    "び": 4205,
    "ぴ": 4206,
    "ふ": 4207,
    "ぶ": 4208,
    "ぷ": 4209,
    "へ": 4210,
    "べ": 4211,
    "ぺ": 4212,
    "ほ": 4213,
    "ぼ": 4214,
    "ぽ": 4215,
    "ま": 4216,
    "み": 4217,
    "む": 4218,
    "め": 4219,
    "も": 4220,
    "ゃ": 4221,
    "や": 4222,
    "ゅ": 4223,
    "ゆ": 4224,
    "ょ": 4225,
    "よ": 4226,
    "ら": 4227,
    "り": 4228,
    "る": 4229,
    "れ": 4230,
    "ろ": 4231,
    "ゎ": 4232,
    "わ": 4233,
    "を": 4234,
    "ん": 4235,
    "゚": 4236,
    "゛": 4237,
    "゜": 4238,
    "ァ": 4239,
    "ア": 4240,
    "ィ": 4241,
    "イ": 4242,
    "ゥ": 4243,
    "ウ": 4244,
    "ェ": 4245,
    "エ": 4246,
    "ォ": 4247,
    "オ": 4248,
    "カ": 4249,
    "ガ": 4250,
    "キ": 4251,
    "ギ": 4252,
    "ク": 4253,
    "グ": 4254,
    "ケ": 4255,
    "ゲ": 4256,
    "コ": 4257,
    "ゴ": 4258,
    "サ": 4259,
    "ザ": 4260,
    "シ": 4261,
    "ジ": 4262,
    "ス": 4263,
    "ズ": 4264,
    "セ": 4265,
    "ゼ": 4266,
    "ソ": 4267,
    "ゾ": 4268,
    "タ": 4269,
    "ダ": 4270,
    "チ": 4271,
    "ヂ": 4272,
    "ッ": 4273,
    "ツ": 4274,
    "ヅ": 4275,
    "テ": 4276,
    "デ": 4277,
    "ト": 4278,
    "ド": 4279,
    "ナ": 4280,
    "ニ": 4281,
    "ヌ": 4282,
    "ネ": 4283,
    "ノ": 4284,
    "ハ": 4285,
    "バ": 4286,
    "パ": 4287,
    "ヒ": 4288,
    "ビ": 4289,
    "ピ": 4290,
    "フ": 4291,
    "ブ": 4292,
    "プ": 4293,
    "ヘ": 4294,
    "ベ": 4295,
    "ペ": 4296,
    "ホ": 4297,
    "ボ": 4298,
    "ポ": 4299,
    "マ": 4300,
    "ミ": 4301,
    "ム": 4302,
    "メ": 4303,
    "モ": 4304,
    "ャ": 4305,
    "ヤ": 4306,
    "ュ": 4307,
    "ユ": 4308,
    "ョ": 4309,
    "ヨ": 4310,
    "ラ": 4311,
    "リ": 4312,
    "ル": 4313,
    "レ": 4314,
    "ロ": 4315,
    "ヮ": 4316,
    "ワ": 4317,
    "ヱ": 4318,
    "ヲ": 4319,
    "ン": 4320,
    "ヴ": 4321,
    "ヶ": 4322,
    "・": 4323,
    "ー": 4324,
    "ヽ": 4325,
    "ヾ": 4326,
    "ㄅ": 4327,
    "ㄇ": 4328,
    "ㄈ": 4329,
    "ㄏ": 4330,
    "ㄑ": 4331,
    "ㄒ": 4332,
    "ㄓ": 4333,
    "ㄕ": 4334,
    "ㄘ": 4335,
    "ㄜ": 4336,
    "ㄟ": 4337,
    "ㄢ": 4338,
    "ㄣ": 4339,
    "ㄤ": 4340,
    "ㄥ": 4341,
    "ㄧ": 4342,
    "ㄱ": 4343,
    "ㄲ": 4344,
    "ㄳ": 4345,
    "ㄴ": 4346,
    "ㄵ": 4347,
    "ㄶ": 4348,
    "ㄷ": 4349,
    "ㄸ": 4350,
    "ㄹ": 4351,
    "ㄺ": 4352,
    "ㄻ": 4353,
    "ㄼ": 4354,
    "ㄽ": 4355,
    "ㄾ": 4356,
    "ㄿ": 4357,
    "ㅀ": 4358,
    "ㅁ": 4359,
    "ㅂ": 4360,
    "ㅃ": 4361,
    "ㅄ": 4362,
    "ㅅ": 4363,
    "ㅆ": 4364,
    "ㅇ": 4365,
    "ㅈ": 4366,
    "ㅉ": 4367,
    "ㅊ": 4368,
    "ㅋ": 4369,
    "ㅌ": 4370,
    "ㅍ": 4371,
    "ㅎ": 4372,
    "ㅏ": 4373,
    "ㅐ": 4374,
    "ㅑ": 4375,
    "ㅒ": 4376,
    "ㅓ": 4377,
    "ㅔ": 4378,
    "ㅕ": 4379,
    "ㅖ": 4380,
    "ㅗ": 4381,
    "ㅘ": 4382,
    "ㅙ": 4383,
    "ㅚ": 4384,
    "ㅛ": 4385,
    "ㅜ": 4386,
    "ㅝ": 4387,
    "ㅞ": 4388,
    "ㅟ": 4389,
    "ㅠ": 4390,
    "ㅡ": 4391,
    "ㅢ": 4392,
    "ㅣ": 4393,
    "ㅤ": 4394,
    "ㅱ": 4395,
    "ㆁ": 4396,
    "ㆍ": 4397,
    "㇄": 4398,
    "㉲": 4399,
    "㊗": 4400,
    "㎝": 4401,
    "㎡": 4402,
    "㠪": 4403,
    "㣯": 4404,
    "㥂": 4405,
    "㨠": 4406,
    "㱍": 4407,
    "䍦": 4408,
    "䖃": 4409,
    "䜌": 4410,
    "䨐": 4411,
    "䭪": 4412,
    "䯠": 4413,
    "一": 4414,
    "丁": 4415,
    "七": 4416,
    "丄": 4417,
    "丅": 4418,
    "万": 4419,
    "丈": 4420,
    "三": 4421,
    "上": 4422,
    "下": 4423,
    "不": 4424,
    "与": 4425,
    "丑": 4426,
    "专": 4427,
    "且": 4428,
    "丕": 4429,
    "世": 4430,
    "丘": 4431,
    "业": 4432,
    "丛": 4433,
    "东": 4434,
    "丝": 4435,
    "丞": 4436,
    "丟": 4437,
    "両": 4438,
    "丢": 4439,
    "两": 4440,
    "严": 4441,
    "並": 4442,
    "丧": 4443,
    "个": 4444,
    "中": 4445,
    "丰": 4446,
    "串": 4447,
    "临": 4448,
    "丶": 4449,
    "丸": 4450,
    "丹": 4451,
    "为": 4452,
    "主": 4453,
    "丽": 4454,
    "举": 4455,
    "乂": 4456,
    "乃": 4457,
    "久": 4458,
    "么": 4459,
    "义": 4460,
    "之": 4461,
    "乌": 4462,
    "乍": 4463,
    "乎": 4464,
    "乏": 4465,
    "乐": 4466,
    "乒": 4467,
    "乔": 4468,
    "乗": 4469,
    "乘": 4470,
    "乙": 4471,
    "乜": 4472,
    "九": 4473,
    "也": 4474,
    "习": 4475,
    "乡": 4476,
    "书": 4477,
    "乫": 4478,
    "买": 4479,
    "乱": 4480,
    "乳": 4481,
    "乾": 4482,
    "亀": 4483,
    "了": 4484,
    "予": 4485,
    "争": 4486,
    "事": 4487,
    "二": 4488,
    "于": 4489,
    "亏": 4490,
    "云": 4491,
    "互": 4492,
    "亓": 4493,
    "五": 4494,
    "井": 4495,
    "亚": 4496,
    "些": 4497,
    "亜": 4498,
    "亠": 4499,
    "亡": 4500,
    "交": 4501,
    "亦": 4502,
    "产": 4503,
    "亨": 4504,
    "亩": 4505,
    "享": 4506,
    "京": 4507,
    "亭": 4508,
    "亮": 4509,
    "亲": 4510,
    "人": 4511,
    "亿": 4512,
    "什": 4513,
    "仁": 4514,
    "仅": 4515,
    "今": 4516,
    "介": 4517,
    "仍": 4518,
    "从": 4519,
    "仏": 4520,
    "仑": 4521,
    "仓": 4522,
    "仔": 4523,
    "仕": 4524,
    "他": 4525,
    "仗": 4526,
    "付": 4527,
    "仙": 4528,
    "仟": 4529,
    "仡": 4530,
    "代": 4531,
    "令": 4532,
    "以": 4533,
    "仪": 4534,
    "仫": 4535,
    "们": 4536,
    "仮": 4537,
    "仰": 4538,
    "仲": 4539,
    "件": 4540,
    "价": 4541,
    "任": 4542,
    "份": 4543,
    "仿": 4544,
    "企": 4545,
    "伊": 4546,
    "伍": 4547,
    "伎": 4548,
    "伏": 4549,
    "伐": 4550,
    "休": 4551,
    "众": 4552,
    "优": 4553,
    "伙": 4554,
    "会": 4555,
    "伟": 4556,
    "传": 4557,
    "伦": 4558,
    "伪": 4559,
    "伯": 4560,
    "估": 4561,
    "伴": 4562,
    "伸": 4563,
    "伺": 4564,
    "似": 4565,
    "伽": 4566,
    "但": 4567,
    "佈": 4568,
    "位": 4569,
    "低": 4570,
    "住": 4571,
    "佐": 4572,
    "佑": 4573,
    "体": 4574,
    "佔": 4575,
    "何": 4576,
    "余": 4577,
    "佚": 4578,
    "佛": 4579,
    "作": 4580,
    "你": 4581,
    "佢": 4582,
    "佣": 4583,
    "佤": 4584,
    "佩": 4585,
    "佪": 4586,
    "佫": 4587,
    "佬": 4588,
    "佰": 4589,
    "佳": 4590,
    "併": 4591,
    "佺": 4592,
    "使": 4593,
    "來": 4594,
    "例": 4595,
    "侍": 4596,
    "侏": 4597,
    "侖": 4598,
    "侗": 4599,
    "供": 4600,
    "依": 4601,
    "侠": 4602,
    "価": 4603,
    "侦": 4604,
    "侧": 4605,
    "侨": 4606,
    "侮": 4607,
    "侯": 4608,
    "侵": 4609,
    "便": 4610,
    "係": 4611,
    "促": 4612,
    "俄": 4613,
    "俊": 4614,
    "俗": 4615,
    "保": 4616,
    "信": 4617,
    "俩": 4618,
    "修": 4619,
    "俯": 4620,
    "俱": 4621,
    "俺": 4622,
    "俾": 4623,
    "倉": 4624,
    "個": 4625,
    "倍": 4626,
    "們": 4627,
    "倒": 4628,
    "倘": 4629,
    "候": 4630,
    "倚": 4631,
    "借": 4632,
    "倡": 4633,
    "値": 4634,
    "倫": 4635,
    "倭": 4636,
    "倹": 4637,
    "债": 4638,
    "值": 4639,
    "倾": 4640,
    "偃": 4641,
    "假": 4642,
    "偉": 4643,
    "偏": 4644,
    "做": 4645,
    "停": 4646,
    "健": 4647,
    "側": 4648,
    "偵": 4649,
    "偶": 4650,
    "偷": 4651,
    "偽": 4652,
    "偿": 4653,
    "傀": 4654,
    "傅": 4655,
    "傈": 4656,
    "傍": 4657,
    "傑": 4658,
    "備": 4659,
    "傣": 4660,
    "傧": 4661,
    "储": 4662,
    "催": 4663,
    "傭": 4664,
    "傲": 4665,
    "傳": 4666,
    "債": 4667,
    "傷": 4668,
    "傻": 4669,
    "傾": 4670,
    "僅": 4671,
    "働": 4672,
    "像": 4673,
    "僕": 4674,
    "僚": 4675,
    "僧": 4676,
    "僳": 4677,
    "僵": 4678,
    "價": 4679,
    "儀": 4680,
    "億": 4681,
    "儘": 4682,
    "償": 4683,
    "優": 4684,
    "儲": 4685,
    "儿": 4686,
    "兀": 4687,
    "允": 4688,
    "元": 4689,
    "兄": 4690,
    "充": 4691,
    "兆": 4692,
    "先": 4693,
    "光": 4694,
    "克": 4695,
    "兌": 4696,
    "免": 4697,
    "兑": 4698,
    "兒": 4699,
    "兔": 4700,
    "党": 4701,
    "兜": 4702,
    "入": 4703,
    "內": 4704,
    "全": 4705,
    "兩": 4706,
    "八": 4707,
    "公": 4708,
    "六": 4709,
    "兰": 4710,
    "共": 4711,
    "兲": 4712,
    "关": 4713,
    "兴": 4714,
    "兵": 4715,
    "其": 4716,
    "具": 4717,
    "典": 4718,
    "兹": 4719,
    "养": 4720,
    "兼": 4721,
    "兽": 4722,
    "冀": 4723,
    "内": 4724,
    "円": 4725,
    "冇": 4726,
    "冈": 4727,
    "冊": 4728,
    "册": 4729,
    "再": 4730,
    "冒": 4731,
    "冗": 4732,
    "写": 4733,
    "军": 4734,
    "农": 4735,
    "冠": 4736,
    "冢": 4737,
    "冣": 4738,
    "冥": 4739,
    "冪": 4740,
    "冬": 4741,
    "冯": 4742,
    "冰": 4743,
    "冲": 4744,
    "决": 4745,
    "况": 4746,
    "冶": 4747,
    "冷": 4748,
    "冻": 4749,
    "净": 4750,
    "准": 4751,
    "凌": 4752,
    "凍": 4753,
    "减": 4754,
    "凑": 4755,
    "凝": 4756,
    "几": 4757,
    "凡": 4758,
    "凤": 4759,
    "処": 4760,
    "凭": 4761,
    "凯": 4762,
    "凰": 4763,
    "凱": 4764,
    "凶": 4765,
    "凸": 4766,
    "凹": 4767,
    "出": 4768,
    "击": 4769,
    "函": 4770,
    "刀": 4771,
    "刁": 4772,
    "分": 4773,
    "切": 4774,
    "刈": 4775,
    "刊": 4776,
    "刑": 4777,
    "划": 4778,
    "刓": 4779,
    "列": 4780,
    "刘": 4781,
    "则": 4782,
    "刚": 4783,
    "创": 4784,
    "初": 4785,
    "删": 4786,
    "判": 4787,
    "別": 4788,
    "刨": 4789,
    "利": 4790,
    "刪": 4791,
    "别": 4792,
    "刮": 4793,
    "到": 4794,
    "制": 4795,
    "刷": 4796,
    "券": 4797,
    "刺": 4798,
    "刻": 4799,
    "剂": 4800,
    "則": 4801,
    "削": 4802,
    "剋": 4803,
    "剌": 4804,
    "前": 4805,
    "剑": 4806,
    "剔": 4807,
    "剛": 4808,
    "剣": 4809,
    "剥": 4810,
    "剧": 4811,
    "剩": 4812,
    "剪": 4813,
    "副": 4814,
    "剰": 4815,
    "割": 4816,
    "創": 4817,
    "劃": 4818,
    "劇": 4819,
    "劈": 4820,
    "劉": 4821,
    "力": 4822,
    "办": 4823,
    "功": 4824,
    "加": 4825,
    "务": 4826,
    "劣": 4827,
    "动": 4828,
    "助": 4829,
    "努": 4830,
    "劫": 4831,
    "励": 4832,
    "劲": 4833,
    "劳": 4834,
    "労": 4835,
    "効": 4836,
    "劾": 4837,
    "势": 4838,
    "勃": 4839,
    "勇": 4840,
    "勉": 4841,
    "勋": 4842,
    "勒": 4843,
    "動": 4844,
    "勘": 4845,
    "務": 4846,
    "勝": 4847,
    "勞": 4848,
    "募": 4849,
    "勢": 4850,
    "勤": 4851,
    "勧": 4852,
    "勲": 4853,
    "勵": 4854,
    "勻": 4855,
    "勾": 4856,
    "勿": 4857,
    "匀": 4858,
    "包": 4859,
    "匆": 4860,
    "匈": 4861,
    "化": 4862,
    "北": 4863,
    "匙": 4864,
    "匡": 4865,
    "匯": 4866,
    "匹": 4867,
    "区": 4868,
    "医": 4869,
    "匿": 4870,
    "區": 4871,
    "十": 4872,
    "卂": 4873,
    "千": 4874,
    "升": 4875,
    "午": 4876,
    "卉": 4877,
    "半": 4878,
    "卍": 4879,
    "华": 4880,
    "协": 4881,
    "卑": 4882,
    "卓": 4883,
    "協": 4884,
    "单": 4885,
    "卖": 4886,
    "南": 4887,
    "単": 4888,
    "博": 4889,
    "卜": 4890,
    "占": 4891,
    "卡": 4892,
    "卢": 4893,
    "卦": 4894,
    "卧": 4895,
    "卫": 4896,
    "卯": 4897,
    "印": 4898,
    "危": 4899,
    "即": 4900,
    "却": 4901,
    "卷": 4902,
    "卸": 4903,
    "卻": 4904,
    "卿": 4905,
    "厂": 4906,
    "厄": 4907,
    "厅": 4908,
    "历": 4909,
    "厉": 4910,
    "压": 4911,
    "厘": 4912,
    "厚": 4913,
    "原": 4914,
    "厦": 4915,
    "厨": 4916,
    "厲": 4917,
    "厳": 4918,
    "去": 4919,
    "县": 4920,
    "叁": 4921,
    "参": 4922,
    "參": 4923,
    "又": 4924,
    "叉": 4925,
    "及": 4926,
    "友": 4927,
    "双": 4928,
    "反": 4929,
    "収": 4930,
    "发": 4931,
    "取": 4932,
    "受": 4933,
    "变": 4934,
    "叙": 4935,
    "叛": 4936,
    "叟": 4937,
    "叠": 4938,
    "口": 4939,
    "古": 4940,
    "句": 4941,
    "另": 4942,
    "叩": 4943,
    "只": 4944,
    "叫": 4945,
    "召": 4946,
    "叮": 4947,
    "可": 4948,
    "台": 4949,
    "史": 4950,
    "右": 4951,
    "叶": 4952,
    "号": 4953,
    "司": 4954,
    "叹": 4955,
    "叻": 4956,
    "吁": 4957,
    "吃": 4958,
    "各": 4959,
    "合": 4960,
    "吉": 4961,
    "吊": 4962,
    "吋": 4963,
    "同": 4964,
    "名": 4965,
    "后": 4966,
    "吐": 4967,
    "向": 4968,
    "吓": 4969,
    "吕": 4970,
    "吗": 4971,
    "君": 4972,
    "吟": 4973,
    "否": 4974,
    "吧": 4975,
    "吨": 4976,
    "含": 4977,
    "听": 4978,
    "启": 4979,
    "吱": 4980,
    "吲": 4981,
    "吴": 4982,
    "吸": 4983,
    "吹": 4984,
    "吻": 4985,
    "吾": 4986,
    "呀": 4987,
    "呃": 4988,
    "呆": 4989,
    "呈": 4990,
    "呉": 4991,
    "告": 4992,
    "呐": 4993,
    "呕": 4994,
    "呗": 4995,
    "员": 4996,
    "呜": 4997,
    "呢": 4998,
    "呦": 4999,
    "周": 5000,
    "味": 5001,
    "呵": 5002,
    "呸": 5003,
    "呼": 5004,
    "命": 5005,
    "咀": 5006,
    "咁": 5007,
    "咋": 5008,
    "和": 5009,
    "咕": 5010,
    "咗": 5011,
    "咚": 5012,
    "咦": 5013,
    "咨": 5014,
    "咩": 5015,
    "咪": 5016,
    "咱": 5017,
    "咳": 5018,
    "咸": 5019,
    "咽": 5020,
    "哀": 5021,
    "品": 5022,
    "哇": 5023,
    "哈": 5024,
    "哉": 5025,
    "响": 5026,
    "哎": 5027,
    "哑": 5028,
    "哒": 5029,
    "哔": 5030,
    "哗": 5031,
    "哟": 5032,
    "員": 5033,
    "哥": 5034,
    "哦": 5035,
    "哧": 5036,
    "哨": 5037,
    "哩": 5038,
    "哪": 5039,
    "哭": 5040,
    "哲": 5041,
    "哼": 5042,
    "唄": 5043,
    "唉": 5044,
    "唎": 5045,
    "唐": 5046,
    "唑": 5047,
    "唔": 5048,
    "唤": 5049,
    "售": 5050,
    "唯": 5051,
    "唰": 5052,
    "唱": 5053,
    "唷": 5054,
    "商": 5055,
    "啊": 5056,
    "問": 5057,
    "啐": 5058,
    "啓": 5059,
    "啞": 5060,
    "啟": 5061,
    "啤": 5062,
    "啥": 5063,
    "啦": 5064,
    "啲": 5065,
    "啸": 5066,
    "啾": 5067,
    "喀": 5068,
    "喂": 5069,
    "善": 5070,
    "喆": 5071,
    "喇": 5072,
    "喋": 5073,
    "喏": 5074,
    "喚": 5075,
    "喜": 5076,
    "喝": 5077,
    "喧": 5078,
    "喪": 5079,
    "喫": 5080,
    "單": 5081,
    "喰": 5082,
    "喲": 5083,
    "喵": 5084,
    "営": 5085,
    "喷": 5086,
    "喺": 5087,
    "喻": 5088,
    "喽": 5089,
    "嗅": 5090,
    "嗎": 5091,
    "嗜": 5092,
    "嗡": 5093,
    "嗨": 5094,
    "嗬": 5095,
    "嗯": 5096,
    "嗰": 5097,
    "嗳": 5098,
    "嗽": 5099,
    "嘅": 5100,
    "嘉": 5101,
    "嘎": 5102,
    "嘔": 5103,
    "嘗": 5104,
    "嘘": 5105,
    "嘛": 5106,
    "嘤": 5107,
    "嘱": 5108,
    "嘴": 5109,
    "嘶": 5110,
    "嘻": 5111,
    "嘿": 5112,
    "噓": 5113,
    "噢": 5114,
    "器": 5115,
    "噪": 5116,
    "噬": 5117,
    "噸": 5118,
    "嚇": 5119,
    "嚏": 5120,
    "嚴": 5121,
    "嚼": 5122,
    "囉": 5123,
    "囊": 5124,
    "四": 5125,
    "回": 5126,
    "因": 5127,
    "团": 5128,
    "団": 5129,
    "囧": 5130,
    "园": 5131,
    "困": 5132,
    "囲": 5133,
    "図": 5134,
    "围": 5135,
    "囸": 5136,
    "固": 5137,
    "国": 5138,
    "图": 5139,
    "圀": 5140,
    "圆": 5141,
    "圈": 5142,
    "國": 5143,
    "圍": 5144,
    "圏": 5145,
    "園": 5146,
    "圓": 5147,
    "圖": 5148,
    "團": 5149,
    "土": 5150,
    "圣": 5151,
    "圧": 5152,
    "在": 5153,
    "圩": 5154,
    "圭": 5155,
    "地": 5156,
    "圳": 5157,
    "场": 5158,
    "圻": 5159,
    "圾": 5160,
    "址": 5161,
    "坂": 5162,
    "均": 5163,
    "坊": 5164,
    "坍": 5165,
    "坎": 5166,
    "坏": 5167,
    "坐": 5168,
    "坑": 5169,
    "块": 5170,
    "坚": 5171,
    "坛": 5172,
    "坝": 5173,
    "坠": 5174,
    "坡": 5175,
    "坤": 5176,
    "坦": 5177,
    "坪": 5178,
    "垂": 5179,
    "垃": 5180,
    "型": 5181,
    "垣": 5182,
    "埃": 5183,
    "埋": 5184,
    "城": 5185,
    "埔": 5186,
    "域": 5187,
    "執": 5188,
    "培": 5189,
    "基": 5190,
    "埼": 5191,
    "堀": 5192,
    "堂": 5193,
    "堅": 5194,
    "堆": 5195,
    "堇": 5196,
    "堡": 5197,
    "堤": 5198,
    "堪": 5199,
    "堰": 5200,
    "報": 5201,
    "場": 5202,
    "堵": 5203,
    "塊": 5204,
    "塌": 5205,
    "塑": 5206,
    "塔": 5207,
    "塘": 5208,
    "塞": 5209,
    "塩": 5210,
    "填": 5211,
    "塵": 5212,
    "墀": 5213,
    "境": 5214,
    "増": 5215,
    "墙": 5216,
    "增": 5217,
    "墨": 5218,
    "墲": 5219,
    "墾": 5220,
    "壁": 5221,
    "壇": 5222,
    "壊": 5223,
    "壑": 5224,
    "壓": 5225,
    "壤": 5226,
    "壩": 5227,
    "士": 5228,
    "壮": 5229,
    "声": 5230,
    "壱": 5231,
    "売": 5232,
    "壳": 5233,
    "壶": 5234,
    "壹": 5235,
    "壽": 5236,
    "处": 5237,
    "备": 5238,
    "変": 5239,
    "复": 5240,
    "夏": 5241,
    "夕": 5242,
    "外": 5243,
    "多": 5244,
    "夜": 5245,
    "够": 5246,
    "夠": 5247,
    "夢": 5248,
    "大": 5249,
    "天": 5250,
    "太": 5251,
    "夫": 5252,
    "央": 5253,
    "失": 5254,
    "头": 5255,
    "夸": 5256,
    "夹": 5257,
    "夾": 5258,
    "奇": 5259,
    "奈": 5260,
    "奉": 5261,
    "奋": 5262,
    "奎": 5263,
    "奏": 5264,
    "契": 5265,
    "奔": 5266,
    "奖": 5267,
    "套": 5268,
    "奘": 5269,
    "奚": 5270,
    "奥": 5271,
    "奨": 5272,
    "奪": 5273,
    "女": 5274,
    "奴": 5275,
    "奶": 5276,
    "奸": 5277,
    "她": 5278,
    "奻": 5279,
    "好": 5280,
    "如": 5281,
    "妇": 5282,
    "妈": 5283,
    "妊": 5284,
    "妒": 5285,
    "妖": 5286,
    "妙": 5287,
    "妥": 5288,
    "妨": 5289,
    "妳": 5290,
    "妹": 5291,
    "妻": 5292,
    "姆": 5293,
    "姉": 5294,
    "始": 5295,
    "姐": 5296,
    "姑": 5297,
    "姓": 5298,
    "委": 5299,
    "姚": 5300,
    "姝": 5301,
    "姬": 5302,
    "姻": 5303,
    "姿": 5304,
    "威": 5305,
    "娃": 5306,
    "娟": 5307,
    "娠": 5308,
    "娨": 5309,
    "娱": 5310,
    "婆": 5311,
    "婉": 5312,
    "婚": 5313,
    "婪": 5314,
    "婷": 5315,
    "媒": 5316,
    "媚": 5317,
    "媛": 5318,
    "嫁": 5319,
    "嫌": 5320,
    "嫩": 5321,
    "子": 5322,
    "孔": 5323,
    "字": 5324,
    "存": 5325,
    "孙": 5326,
    "孜": 5327,
    "孝": 5328,
    "孟": 5329,
    "季": 5330,
    "孤": 5331,
    "学": 5332,
    "孩": 5333,
    "孪": 5334,
    "孫": 5335,
    "孵": 5336,
    "學": 5337,
    "宁": 5338,
    "它": 5339,
    "宅": 5340,
    "宇": 5341,
    "守": 5342,
    "安": 5343,
    "宋": 5344,
    "完": 5345,
    "宏": 5346,
    "宗": 5347,
    "官": 5348,
    "宙": 5349,
    "定": 5350,
    "宛": 5351,
    "宜": 5352,
    "宝": 5353,
    "实": 5354,
    "実": 5355,
    "宠": 5356,
    "审": 5357,
    "客": 5358,
    "宣": 5359,
    "室": 5360,
    "宦": 5361,
    "宫": 5362,
    "宮": 5363,
    "害": 5364,
    "宴": 5365,
    "家": 5366,
    "容": 5367,
    "宽": 5368,
    "宾": 5369,
    "宿": 5370,
    "寂": 5371,
    "寄": 5372,
    "寅": 5373,
    "密": 5374,
    "寇": 5375,
    "富": 5376,
    "寒": 5377,
    "寛": 5378,
    "寝": 5379,
    "寞": 5380,
    "察": 5381,
    "寡": 5382,
    "寥": 5383,
    "實": 5384,
    "寨": 5385,
    "寫": 5386,
    "寬": 5387,
    "寶": 5388,
    "寸": 5389,
    "对": 5390,
    "寺": 5391,
    "寻": 5392,
    "导": 5393,
    "対": 5394,
    "寿": 5395,
    "封": 5396,
    "専": 5397,
    "射": 5398,
    "将": 5399,
    "將": 5400,
    "專": 5401,
    "尉": 5402,
    "尊": 5403,
    "尋": 5404,
    "對": 5405,
    "導": 5406,
    "小": 5407,
    "少": 5408,
    "尔": 5409,
    "尖": 5410,
    "尚": 5411,
    "尝": 5412,
    "尤": 5413,
    "尬": 5414,
    "就": 5415,
    "尴": 5416,
    "尸": 5417,
    "尺": 5418,
    "尼": 5419,
    "尽": 5420,
    "尾": 5421,
    "尿": 5422,
    "局": 5423,
    "层": 5424,
    "屄": 5425,
    "居": 5426,
    "屈": 5427,
    "届": 5428,
    "屋": 5429,
    "屍": 5430,
    "屎": 5431,
    "屏": 5432,
    "屑": 5433,
    "展": 5434,
    "属": 5435,
    "屠": 5436,
    "屡": 5437,
    "層": 5438,
    "履": 5439,
    "屬": 5440,
    "山": 5441,
    "屿": 5442,
    "岁": 5443,
    "岂": 5444,
    "岐": 5445,
    "岗": 5446,
    "岛": 5447,
    "岡": 5448,
    "岩": 5449,
    "岭": 5450,
    "岱": 5451,
    "岳": 5452,
    "岸": 5453,
    "峡": 5454,
    "峭": 5455,
    "峰": 5456,
    "島": 5457,
    "崎": 5458,
    "崖": 5459,
    "崩": 5460,
    "嵇": 5461,
    "嵌": 5462,
    "嵐": 5463,
    "嵗": 5464,
    "川": 5465,
    "州": 5466,
    "巡": 5467,
    "巢": 5468,
    "工": 5469,
    "左": 5470,
    "巧": 5471,
    "巨": 5472,
    "巫": 5473,
    "差": 5474,
    "己": 5475,
    "已": 5476,
    "巴": 5477,
    "巻": 5478,
    "巽": 5479,
    "巾": 5480,
    "币": 5481,
    "市": 5482,
    "布": 5483,
    "帅": 5484,
    "帆": 5485,
    "师": 5486,
    "希": 5487,
    "帐": 5488,
    "帕": 5489,
    "帖": 5490,
    "帝": 5491,
    "带": 5492,
    "帧": 5493,
    "師": 5494,
    "席": 5495,
    "帮": 5496,
    "帯": 5497,
    "帰": 5498,
    "帳": 5499,
    "帶": 5500,
    "帷": 5501,
    "常": 5502,
    "帽": 5503,
    "幂": 5504,
    "幅": 5505,
    "幕": 5506,
    "幣": 5507,
    "幫": 5508,
    "干": 5509,
    "平": 5510,
    "年": 5511,
    "并": 5512,
    "幸": 5513,
    "幹": 5514,
    "幺": 5515,
    "幻": 5516,
    "幼": 5517,
    "幽": 5518,
    "幾": 5519,
    "广": 5520,
    "庁": 5521,
    "広": 5522,
    "庄": 5523,
    "庆": 5524,
    "庇": 5525,
    "床": 5526,
    "序": 5527,
    "库": 5528,
    "应": 5529,
    "底": 5530,
    "店": 5531,
    "庙": 5532,
    "庚": 5533,
    "府": 5534,
    "庞": 5535,
    "废": 5536,
    "度": 5537,
    "座": 5538,
    "庫": 5539,
    "庭": 5540,
    "康": 5541,
    "庸": 5542,
    "廃": 5543,
    "廉": 5544,
    "廊": 5545,
    "廓": 5546,
    "廖": 5547,
    "廣": 5548,
    "廳": 5549,
    "延": 5550,
    "廷": 5551,
    "建": 5552,
    "开": 5553,
    "弁": 5554,
    "异": 5555,
    "弃": 5556,
    "弄": 5557,
    "弈": 5558,
    "式": 5559,
    "弓": 5560,
    "弔": 5561,
    "引": 5562,
    "弗": 5563,
    "弘": 5564,
    "弛": 5565,
    "弟": 5566,
    "张": 5567,
    "弥": 5568,
    "弦": 5569,
    "弧": 5570,
    "弯": 5571,
    "弱": 5572,
    "張": 5573,
    "強": 5574,
    "弹": 5575,
    "强": 5576,
    "弾": 5577,
    "彌": 5578,
    "归": 5579,
    "当": 5580,
    "录": 5581,
    "彗": 5582,
    "彙": 5583,
    "彝": 5584,
    "彡": 5585,
    "形": 5586,
    "彥": 5587,
    "彦": 5588,
    "彩": 5589,
    "彪": 5590,
    "彫": 5591,
    "彬": 5592,
    "彰": 5593,
    "影": 5594,
    "役": 5595,
    "彻": 5596,
    "彼": 5597,
    "往": 5598,
    "征": 5599,
    "径": 5600,
    "待": 5601,
    "很": 5602,
    "律": 5603,
    "後": 5604,
    "徐": 5605,
    "徑": 5606,
    "徒": 5607,
    "従": 5608,
    "得": 5609,
    "從": 5610,
    "御": 5611,
    "復": 5612,
    "循": 5613,
    "微": 5614,
    "徳": 5615,
    "徴": 5616,
    "徵": 5617,
    "德": 5618,
    "徹": 5619,
    "徽": 5620,
    "心": 5621,
    "必": 5622,
    "忆": 5623,
    "忌": 5624,
    "忍": 5625,
    "志": 5626,
    "忘": 5627,
    "忙": 5628,
    "応": 5629,
    "忠": 5630,
    "忧": 5631,
    "快": 5632,
    "念": 5633,
    "忽": 5634,
    "忿": 5635,
    "怀": 5636,
    "态": 5637,
    "怎": 5638,
    "怒": 5639,
    "怕": 5640,
    "怖": 5641,
    "思": 5642,
    "怡": 5643,
    "急": 5644,
    "性": 5645,
    "怨": 5646,
    "怪": 5647,
    "总": 5648,
    "恃": 5649,
    "恆": 5650,
    "恍": 5651,
    "恐": 5652,
    "恒": 5653,
    "恢": 5654,
    "恥": 5655,
    "恨": 5656,
    "恩": 5657,
    "恭": 5658,
    "息": 5659,
    "恰": 5660,
    "恳": 5661,
    "恵": 5662,
    "恶": 5663,
    "悅": 5664,
    "悉": 5665,
    "悔": 5666,
    "悖": 5667,
    "悚": 5668,
    "悟": 5669,
    "悠": 5670,
    "患": 5671,
    "悦": 5672,
    "您": 5673,
    "悪": 5674,
    "悬": 5675,
    "悲": 5676,
    "情": 5677,
    "惊": 5678,
    "惑": 5679,
    "惜": 5680,
    "惟": 5681,
    "惠": 5682,
    "惧": 5683,
    "惨": 5684,
    "惩": 5685,
    "惯": 5686,
    "惰": 5687,
    "想": 5688,
    "愈": 5689,
    "愉": 5690,
    "意": 5691,
    "愓": 5692,
    "愚": 5693,
    "愛": 5694,
    "感": 5695,
    "愣": 5696,
    "愿": 5697,
    "態": 5698,
    "慎": 5699,
    "慕": 5700,
    "慘": 5701,
    "慢": 5702,
    "慣": 5703,
    "慧": 5704,
    "慨": 5705,
    "慮": 5706,
    "慰": 5707,
    "慶": 5708,
    "慾": 5709,
    "憗": 5710,
    "憤": 5711,
    "憥": 5712,
    "憩": 5713,
    "憬": 5714,
    "憲": 5715,
    "憶": 5716,
    "憾": 5717,
    "懂": 5718,
    "應": 5719,
    "懐": 5720,
    "懒": 5721,
    "懶": 5722,
    "懸": 5723,
    "戈": 5724,
    "戌": 5725,
    "戎": 5726,
    "戏": 5727,
    "成": 5728,
    "我": 5729,
    "戒": 5730,
    "或": 5731,
    "战": 5732,
    "戚": 5733,
    "戛": 5734,
    "戦": 5735,
    "截": 5736,
    "戯": 5737,
    "戰": 5738,
    "戲": 5739,
    "戳": 5740,
    "戴": 5741,
    "戶": 5742,
    "户": 5743,
    "戸": 5744,
    "戻": 5745,
    "房": 5746,
    "所": 5747,
    "扁": 5748,
    "扇": 5749,
    "手": 5750,
    "才": 5751,
    "扎": 5752,
    "扑": 5753,
    "扒": 5754,
    "打": 5755,
    "扔": 5756,
    "払": 5757,
    "托": 5758,
    "扣": 5759,
    "执": 5760,
    "扩": 5761,
    "扪": 5762,
    "扫": 5763,
    "扭": 5764,
    "扮": 5765,
    "扯": 5766,
    "扰": 5767,
    "扱": 5768,
    "批": 5769,
    "找": 5770,
    "承": 5771,
    "技": 5772,
    "抄": 5773,
    "把": 5774,
    "抑": 5775,
    "抓": 5776,
    "投": 5777,
    "抖": 5778,
    "抗": 5779,
    "折": 5780,
    "抛": 5781,
    "抜": 5782,
    "択": 5783,
    "抢": 5784,
    "护": 5785,
    "报": 5786,
    "披": 5787,
    "抬": 5788,
    "抱": 5789,
    "抵": 5790,
    "押": 5791,
    "抽": 5792,
    "担": 5793,
    "拆": 5794,
    "拉": 5795,
    "拋": 5796,
    "拍": 5797,
    "拎": 5798,
    "拐": 5799,
    "拒": 5800,
    "拓": 5801,
    "拔": 5802,
    "拖": 5803,
    "拗": 5804,
    "拘": 5805,
    "招": 5806,
    "拜": 5807,
    "拟": 5808,
    "拠": 5809,
    "拡": 5810,
    "拣": 5811,
    "拥": 5812,
    "拦": 5813,
    "择": 5814,
    "括": 5815,
    "拭": 5816,
    "拱": 5817,
    "拳": 5818,
    "拶": 5819,
    "拷": 5820,
    "拼": 5821,
    "拽": 5822,
    "拾": 5823,
    "拿": 5824,
    "持": 5825,
    "挂": 5826,
    "指": 5827,
    "按": 5828,
    "挑": 5829,
    "挖": 5830,
    "挙": 5831,
    "挝": 5832,
    "挟": 5833,
    "挡": 5834,
    "挤": 5835,
    "挥": 5836,
    "挨": 5837,
    "挪": 5838,
    "振": 5839,
    "挺": 5840,
    "挿": 5841,
    "捆": 5842,
    "捉": 5843,
    "捌": 5844,
    "捕": 5845,
    "捗": 5846,
    "捞": 5847,
    "损": 5848,
    "捡": 5849,
    "换": 5850,
    "捨": 5851,
    "据": 5852,
    "捯": 5853,
    "捷": 5854,
    "捺": 5855,
    "授": 5856,
    "掉": 5857,
    "掌": 5858,
    "排": 5859,
    "掘": 5860,
    "掛": 5861,
    "掠": 5862,
    "採": 5863,
    "探": 5864,
    "掣": 5865,
    "接": 5866,
    "控": 5867,
    "推": 5868,
    "掩": 5869,
    "措": 5870,
    "掲": 5871,
    "掷": 5872,
    "揀": 5873,
    "揃": 5874,
    "揉": 5875,
    "描": 5876,
    "提": 5877,
    "插": 5878,
    "換": 5879,
    "握": 5880,
    "揣": 5881,
    "揭": 5882,
    "揮": 5883,
    "援": 5884,
    "搁": 5885,
    "損": 5886,
    "搏": 5887,
    "搓": 5888,
    "搜": 5889,
    "搞": 5890,
    "搪": 5891,
    "搬": 5892,
    "搭": 5893,
    "搵": 5894,
    "搶": 5895,
    "携": 5896,
    "摄": 5897,
    "摆": 5898,
    "摊": 5899,
    "摔": 5900,
    "摘": 5901,
    "摞": 5902,
    "摥": 5903,
    "摩": 5904,
    "摲": 5905,
    "摴": 5906,
    "摸": 5907,
    "摺": 5908,
    "撃": 5909,
    "撑": 5910,
    "撒": 5911,
    "撞": 5912,
    "撤": 5913,
    "撩": 5914,
    "播": 5915,
    "撮": 5916,
    "撰": 5917,
    "撼": 5918,
    "擁": 5919,
    "擅": 5920,
    "擇": 5921,
    "擊": 5922,
    "擋": 5923,
    "操": 5924,
    "擎": 5925,
    "擔": 5926,
    "據": 5927,
    "擠": 5928,
    "擦": 5929,
    "擬": 5930,
    "擴": 5931,
    "擷": 5932,
    "擺": 5933,
    "擾": 5934,
    "攊": 5935,
    "攒": 5936,
    "攝": 5937,
    "攠": 5938,
    "攤": 5939,
    "支": 5940,
    "收": 5941,
    "改": 5942,
    "攻": 5943,
    "放": 5944,
    "政": 5945,
    "故": 5946,
    "效": 5947,
    "敌": 5948,
    "敎": 5949,
    "敏": 5950,
    "救": 5951,
    "敖": 5952,
    "敗": 5953,
    "敘": 5954,
    "教": 5955,
    "敛": 5956,
    "敞": 5957,
    "敢": 5958,
    "散": 5959,
    "敦": 5960,
    "敬": 5961,
    "数": 5962,
    "敲": 5963,
    "敳": 5964,
    "整": 5965,
    "敵": 5966,
    "數": 5967,
    "斂": 5968,
    "文": 5969,
    "斌": 5970,
    "斐": 5971,
    "斑": 5972,
    "斗": 5973,
    "料": 5974,
    "斜": 5975,
    "斟": 5976,
    "斡": 5977,
    "斤": 5978,
    "斥": 5979,
    "斩": 5980,
    "斬": 5981,
    "断": 5982,
    "斯": 5983,
    "新": 5984,
    "斷": 5985,
    "方": 5986,
    "於": 5987,
    "施": 5988,
    "旁": 5989,
    "旅": 5990,
    "旋": 5991,
    "族": 5992,
    "旗": 5993,
    "无": 5994,
    "既": 5995,
    "日": 5996,
    "旦": 5997,
    "旧": 5998,
    "旨": 5999,
    "早": 6000,
    "旬": 6001,
    "旭": 6002,
    "旱": 6003,
    "时": 6004,
    "旺": 6005,
    "昂": 6006,
    "昇": 6007,
    "昊": 6008,
    "昌": 6009,
    "明": 6010,
    "昏": 6011,
    "易": 6012,
    "昔": 6013,
    "昕": 6014,
    "星": 6015,
    "映": 6016,
    "春": 6017,
    "昨": 6018,
    "昭": 6019,
    "是": 6020,
    "昱": 6021,
    "昵": 6022,
    "显": 6023,
    "時": 6024,
    "晉": 6025,
    "晋": 6026,
    "晒": 6027,
    "晓": 6028,
    "晕": 6029,
    "晖": 6030,
    "晚": 6031,
    "晟": 6032,
    "晨": 6033,
    "晩": 6034,
    "普": 6035,
    "景": 6036,
    "晰": 6037,
    "晴": 6038,
    "晶": 6039,
    "智": 6040,
    "暁": 6041,
    "暂": 6042,
    "暅": 6043,
    "暇": 6044,
    "暐": 6045,
    "暑": 6046,
    "暖": 6047,
    "暗": 6048,
    "暨": 6049,
    "暫": 6050,
    "暲": 6051,
    "暴": 6052,
    "曇": 6053,
    "曖": 6054,
    "曙": 6055,
    "曜": 6056,
    "曝": 6057,
    "曲": 6058,
    "更": 6059,
    "書": 6060,
    "曹": 6061,
    "曼": 6062,
    "曾": 6063,
    "替": 6064,
    "最": 6065,
    "會": 6066,
    "月": 6067,
    "有": 6068,
    "朋": 6069,
    "服": 6070,
    "朔": 6071,
    "朗": 6072,
    "望": 6073,
    "朝": 6074,
    "期": 6075,
    "朦": 6076,
    "朧": 6077,
    "木": 6078,
    "未": 6079,
    "末": 6080,
    "本": 6081,
    "札": 6082,
    "术": 6083,
    "朱": 6084,
    "朴": 6085,
    "朵": 6086,
    "机": 6087,
    "朽": 6088,
    "杀": 6089,
    "杂": 6090,
    "权": 6091,
    "杆": 6092,
    "杉": 6093,
    "李": 6094,
    "杏": 6095,
    "材": 6096,
    "村": 6097,
    "杜": 6098,
    "束": 6099,
    "杠": 6100,
    "条": 6101,
    "来": 6102,
    "杨": 6103,
    "杭": 6104,
    "杯": 6105,
    "杰": 6106,
    "東": 6107,
    "松": 6108,
    "板": 6109,
    "极": 6110,
    "构": 6111,
    "析": 6112,
    "枕": 6113,
    "林": 6114,
    "枚": 6115,
    "果": 6116,
    "枝": 6117,
    "枠": 6118,
    "枢": 6119,
    "枪": 6120,
    "枫": 6121,
    "枯": 6122,
    "架": 6123,
    "柄": 6124,
    "柏": 6125,
    "某": 6126,
    "柑": 6127,
    "柒": 6128,
    "染": 6129,
    "柔": 6130,
    "柘": 6131,
    "柚": 6132,
    "柜": 6133,
    "柠": 6134,
    "查": 6135,
    "柬": 6136,
    "柯": 6137,
    "柱": 6138,
    "柳": 6139,
    "柴": 6140,
    "査": 6141,
    "柿": 6142,
    "栄": 6143,
    "栅": 6144,
    "标": 6145,
    "栈": 6146,
    "栋": 6147,
    "栏": 6148,
    "树": 6149,
    "栓": 6150,
    "栗": 6151,
    "校": 6152,
    "栩": 6153,
    "株": 6154,
    "样": 6155,
    "核": 6156,
    "根": 6157,
    "格": 6158,
    "栽": 6159,
    "桁": 6160,
    "桂": 6161,
    "桃": 6162,
    "框": 6163,
    "案": 6164,
    "桉": 6165,
    "桌": 6166,
    "桐": 6167,
    "桑": 6168,
    "桜": 6169,
    "档": 6170,
    "桥": 6171,
    "桨": 6172,
    "桩": 6173,
    "桲": 6174,
    "桶": 6175,
    "梁": 6176,
    "梅": 6177,
    "條": 6178,
    "梦": 6179,
    "梨": 6180,
    "梭": 6181,
    "梯": 6182,
    "械": 6183,
    "梳": 6184,
    "梵": 6185,
    "检": 6186,
    "棄": 6187,
    "棋": 6188,
    "棒": 6189,
    "棕": 6190,
    "棘": 6191,
    "棟": 6192,
    "森": 6193,
    "棱": 6194,
    "棵": 6195,
    "棺": 6196,
    "椅": 6197,
    "植": 6198,
    "検": 6199,
    "椭": 6200,
    "椰": 6201,
    "楊": 6202,
    "楔": 6203,
    "楕": 6204,
    "楗": 6205,
    "楚": 6206,
    "業": 6207,
    "楯": 6208,
    "楴": 6209,
    "極": 6210,
    "楷": 6211,
    "楼": 6212,
    "楽": 6213,
    "概": 6214,
    "榆": 6215,
    "榕": 6216,
    "榛": 6217,
    "榜": 6218,
    "榮": 6219,
    "榷": 6220,
    "槀": 6221,
    "構": 6222,
    "様": 6223,
    "槽": 6224,
    "樂": 6225,
    "樊": 6226,
    "樋": 6227,
    "樓": 6228,
    "標": 6229,
    "樞": 6230,
    "模": 6231,
    "樣": 6232,
    "権": 6233,
    "横": 6234,
    "樱": 6235,
    "樹": 6236,
    "樺": 6237,
    "橋": 6238,
    "橘": 6239,
    "橙": 6240,
    "機": 6241,
    "橡": 6242,
    "橢": 6243,
    "橫": 6244,
    "檄": 6245,
    "檎": 6246,
    "檐": 6247,
    "檔": 6248,
    "檙": 6249,
    "檚": 6250,
    "檛": 6251,
    "檢": 6252,
    "檬": 6253,
    "檳": 6254,
    "檻": 6255,
    "櫃": 6256,
    "櫻": 6257,
    "欄": 6258,
    "權": 6259,
    "欠": 6260,
    "次": 6261,
    "欢": 6262,
    "欣": 6263,
    "欧": 6264,
    "欲": 6265,
    "欺": 6266,
    "款": 6267,
    "歇": 6268,
    "歉": 6269,
    "歌": 6270,
    "歐": 6271,
    "歓": 6272,
    "歡": 6273,
    "止": 6274,
    "正": 6275,
    "此": 6276,
    "步": 6277,
    "武": 6278,
    "歧": 6279,
    "歩": 6280,
    "歲": 6281,
    "歳": 6282,
    "歴": 6283,
    "歷": 6284,
    "歸": 6285,
    "死": 6286,
    "殆": 6287,
    "殊": 6288,
    "残": 6289,
    "殖": 6290,
    "殴": 6291,
    "段": 6292,
    "殻": 6293,
    "殿": 6294,
    "毀": 6295,
    "毁": 6296,
    "毅": 6297,
    "母": 6298,
    "毎": 6299,
    "每": 6300,
    "毒": 6301,
    "毓": 6302,
    "比": 6303,
    "毕": 6304,
    "毗": 6305,
    "毛": 6306,
    "毫": 6307,
    "氏": 6308,
    "民": 6309,
    "气": 6310,
    "気": 6311,
    "氘": 6312,
    "氠": 6313,
    "氢": 6314,
    "氣": 6315,
    "氫": 6316,
    "水": 6317,
    "永": 6318,
    "汁": 6319,
    "求": 6320,
    "汇": 6321,
    "汉": 6322,
    "汎": 6323,
    "汗": 6324,
    "汚": 6325,
    "汝": 6326,
    "江": 6327,
    "池": 6328,
    "污": 6329,
    "汤": 6330,
    "汪": 6331,
    "汬": 6332,
    "汰": 6333,
    "決": 6334,
    "汽": 6335,
    "沂": 6336,
    "沃": 6337,
    "沈": 6338,
    "沉": 6339,
    "沒": 6340,
    "沖": 6341,
    "沙": 6342,
    "沟": 6343,
    "没": 6344,
    "沢": 6345,
    "沧": 6346,
    "沪": 6347,
    "沫": 6348,
    "沮": 6349,
    "河": 6350,
    "油": 6351,
    "治": 6352,
    "沼": 6353,
    "沿": 6354,
    "況": 6355,
    "泄": 6356,
    "泉": 6357,
    "泊": 6358,
    "法": 6359,
    "泛": 6360,
    "泡": 6361,
    "波": 6362,
    "泣": 6363,
    "泥": 6364,
    "注": 6365,
    "泰": 6366,
    "泳": 6367,
    "泽": 6368,
    "洁": 6369,
    "洄": 6370,
    "洋": 6371,
    "洗": 6372,
    "洛": 6373,
    "洞": 6374,
    "津": 6375,
    "洪": 6376,
    "洱": 6377,
    "洲": 6378,
    "活": 6379,
    "派": 6380,
    "流": 6381,
    "浄": 6382,
    "浅": 6383,
    "测": 6384,
    "济": 6385,
    "浏": 6386,
    "浒": 6387,
    "浓": 6388,
    "浙": 6389,
    "浚": 6390,
    "浜": 6391,
    "浦": 6392,
    "浩": 6393,
    "浪": 6394,
    "浮": 6395,
    "浴": 6396,
    "海": 6397,
    "涂": 6398,
    "涅": 6399,
    "消": 6400,
    "涉": 6401,
    "涌": 6402,
    "涛": 6403,
    "润": 6404,
    "涨": 6405,
    "涮": 6406,
    "涯": 6407,
    "液": 6408,
    "涵": 6409,
    "涼": 6410,
    "淀": 6411,
    "淆": 6412,
    "淘": 6413,
    "淡": 6414,
    "淨": 6415,
    "淫": 6416,
    "淬": 6417,
    "深": 6418,
    "淵": 6419,
    "混": 6420,
    "淺": 6421,
    "添": 6422,
    "清": 6423,
    "渇": 6424,
    "済": 6425,
    "渉": 6426,
    "渊": 6427,
    "渋": 6428,
    "渐": 6429,
    "渓": 6430,
    "渔": 6431,
    "減": 6432,
    "渝": 6433,
    "渠": 6434,
    "渡": 6435,
    "渤": 6436,
    "渦": 6437,
    "温": 6438,
    "測": 6439,
    "渭": 6440,
    "港": 6441,
    "渲": 6442,
    "游": 6443,
    "渾": 6444,
    "湊": 6445,
    "湖": 6446,
    "湘": 6447,
    "湤": 6448,
    "湥": 6449,
    "湩": 6450,
    "湯": 6451,
    "湴": 6452,
    "湾": 6453,
    "湿": 6454,
    "満": 6455,
    "溃": 6456,
    "源": 6457,
    "準": 6458,
    "溝": 6459,
    "溢": 6460,
    "溪": 6461,
    "溫": 6462,
    "溯": 6463,
    "溶": 6464,
    "溺": 6465,
    "滂": 6466,
    "滅": 6467,
    "滑": 6468,
    "滕": 6469,
    "滚": 6470,
    "滞": 6471,
    "满": 6472,
    "滤": 6473,
    "滥": 6474,
    "滨": 6475,
    "滩": 6476,
    "滴": 6477,
    "滾": 6478,
    "滿": 6479,
    "漁": 6480,
    "漂": 6481,
    "漆": 6482,
    "漏": 6483,
    "漓": 6484,
    "演": 6485,
    "漕": 6486,
    "漠": 6487,
    "漢": 6488,
    "漫": 6489,
    "漱": 6490,
    "漲": 6491,
    "潇": 6492,
    "潔": 6493,
    "潜": 6494,
    "潟": 6495,
    "潣": 6496,
    "潤": 6497,
    "潦": 6498,
    "潭": 6499,
    "潮": 6500,
    "潰": 6501,
    "潲": 6502,
    "潷": 6503,
    "澄": 6504,
    "澎": 6505,
    "澐": 6506,
    "澡": 6507,
    "澳": 6508,
    "激": 6509,
    "濁": 6510,
    "濃": 6511,
    "濒": 6512,
    "濟": 6513,
    "濠": 6514,
    "濯": 6515,
    "濾": 6516,
    "瀏": 6517,
    "瀚": 6518,
    "瀬": 6519,
    "灣": 6520,
    "火": 6521,
    "灬": 6522,
    "灭": 6523,
    "灯": 6524,
    "灰": 6525,
    "灵": 6526,
    "灶": 6527,
    "灾": 6528,
    "炉": 6529,
    "炎": 6530,
    "炒": 6531,
    "炫": 6532,
    "炭": 6533,
    "炮": 6534,
    "炳": 6535,
    "炸": 6536,
    "点": 6537,
    "為": 6538,
    "炼": 6539,
    "烁": 6540,
    "烂": 6541,
    "烈": 6542,
    "烏": 6543,
    "烘": 6544,
    "烛": 6545,
    "烟": 6546,
    "烤": 6547,
    "烦": 6548,
    "烧": 6549,
    "烬": 6550,
    "热": 6551,
    "烽": 6552,
    "焊": 6553,
    "焚": 6554,
    "焜": 6555,
    "無": 6556,
    "焦": 6557,
    "焰": 6558,
    "然": 6559,
    "焼": 6560,
    "煙": 6561,
    "照": 6562,
    "煩": 6563,
    "煮": 6564,
    "熊": 6565,
    "熔": 6566,
    "熙": 6567,
    "熟": 6568,
    "熬": 6569,
    "熱": 6570,
    "熵": 6571,
    "熹": 6572,
    "燃": 6573,
    "燈": 6574,
    "燊": 6575,
    "營": 6576,
    "燥": 6577,
    "燮": 6578,
    "爆": 6579,
    "爧": 6580,
    "爪": 6581,
    "爬": 6582,
    "爱": 6583,
    "爲": 6584,
    "爵": 6585,
    "父": 6586,
    "爷": 6587,
    "爸": 6588,
    "爹": 6589,
    "爺": 6590,
    "爽": 6591,
    "爾": 6592,
    "爿": 6593,
    "牆": 6594,
    "片": 6595,
    "版": 6596,
    "牌": 6597,
    "牙": 6598,
    "牛": 6599,
    "牠": 6600,
    "牡": 6601,
    "牢": 6602,
    "牧": 6603,
    "物": 6604,
    "牯": 6605,
    "牲": 6606,
    "牳": 6607,
    "牵": 6608,
    "特": 6609,
    "牺": 6610,
    "犀": 6611,
    "犠": 6612,
    "犬": 6613,
    "犯": 6614,
    "状": 6615,
    "狀": 6616,
    "狂": 6617,
    "狄": 6618,
    "狐": 6619,
    "狒": 6620,
    "狗": 6621,
    "狦": 6622,
    "狩": 6623,
    "独": 6624,
    "狭": 6625,
    "狮": 6626,
    "狸": 6627,
    "狼": 6628,
    "猎": 6629,
    "猛": 6630,
    "猜": 6631,
    "猠": 6632,
    "猩": 6633,
    "猪": 6634,
    "猫": 6635,
    "猬": 6636,
    "猭": 6637,
    "献": 6638,
    "猺": 6639,
    "猿": 6640,
    "獅": 6641,
    "獎": 6642,
    "獨": 6643,
    "獩": 6644,
    "獰": 6645,
    "獲": 6646,
    "獵": 6647,
    "獸": 6648,
    "獻": 6649,
    "玄": 6650,
    "率": 6651,
    "玉": 6652,
    "王": 6653,
    "玖": 6654,
    "玛": 6655,
    "玡": 6656,
    "玥": 6657,
    "玩": 6658,
    "玫": 6659,
    "玮": 6660,
    "环": 6661,
    "现": 6662,
    "玲": 6663,
    "玻": 6664,
    "珊": 6665,
    "珍": 6666,
    "珑": 6667,
    "珞": 6668,
    "珠": 6669,
    "班": 6670,
    "現": 6671,
    "球": 6672,
    "理": 6673,
    "琌": 6674,
    "琐": 6675,
    "琠": 6676,
    "琨": 6677,
    "琪": 6678,
    "琳": 6679,
    "琴": 6680,
    "琵": 6681,
    "琶": 6682,
    "琼": 6683,
    "瑋": 6684,
    "瑕": 6685,
    "瑙": 6686,
    "瑞": 6687,
    "瑟": 6688,
    "瑠": 6689,
    "瑥": 6690,
    "瑨": 6691,
    "瑩": 6692,
    "瑪": 6693,
    "瑯": 6694,
    "瑰": 6695,
    "瑶": 6696,
    "璃": 6697,
    "璋": 6698,
    "璐": 6699,
    "璝": 6700,
    "璞": 6701,
    "璧": 6702,
    "環": 6703,
    "璸": 6704,
    "璽": 6705,
    "瓜": 6706,
    "瓣": 6707,
    "瓦": 6708,
    "瓯": 6709,
    "瓶": 6710,
    "瓽": 6711,
    "甄": 6712,
    "甘": 6713,
    "甚": 6714,
    "甜": 6715,
    "生": 6716,
    "產": 6717,
    "産": 6718,
    "用": 6719,
    "甫": 6720,
    "甭": 6721,
    "田": 6722,
    "由": 6723,
    "甲": 6724,
    "申": 6725,
    "电": 6726,
    "男": 6727,
    "甸": 6728,
    "町": 6729,
    "画": 6730,
    "畀": 6731,
    "畅": 6732,
    "界": 6733,
    "畏": 6734,
    "留": 6735,
    "畜": 6736,
    "畝": 6737,
    "畢": 6738,
    "略": 6739,
    "番": 6740,
    "畫": 6741,
    "異": 6742,
    "畲": 6743,
    "畳": 6744,
    "當": 6745,
    "畸": 6746,
    "畿": 6747,
    "疆": 6748,
    "疊": 6749,
    "疏": 6750,
    "疑": 6751,
    "疗": 6752,
    "疫": 6753,
    "疯": 6754,
    "疱": 6755,
    "疲": 6756,
    "疵": 6757,
    "疹": 6758,
    "疾": 6759,
    "病": 6760,
    "症": 6761,
    "痕": 6762,
    "痛": 6763,
    "痩": 6764,
    "痫": 6765,
    "痰": 6766,
    "痴": 6767,
    "瘋": 6768,
    "瘘": 6769,
    "瘟": 6770,
    "瘠": 6771,
    "瘦": 6772,
    "療": 6773,
    "癌": 6774,
    "癡": 6775,
    "癥": 6776,
    "癫": 6777,
    "癸": 6778,
    "発": 6779,
    "登": 6780,
    "發": 6781,
    "白": 6782,
    "百": 6783,
    "的": 6784,
    "皆": 6785,
    "皇": 6786,
    "皖": 6787,
    "皮": 6788,
    "皿": 6789,
    "盆": 6790,
    "盈": 6791,
    "益": 6792,
    "盎": 6793,
    "盐": 6794,
    "监": 6795,
    "盒": 6796,
    "盖": 6797,
    "盗": 6798,
    "盘": 6799,
    "盛": 6800,
    "盜": 6801,
    "盟": 6802,
    "盡": 6803,
    "盢": 6804,
    "監": 6805,
    "盤": 6806,
    "盧": 6807,
    "目": 6808,
    "盲": 6809,
    "直": 6810,
    "相": 6811,
    "盼": 6812,
    "盾": 6813,
    "省": 6814,
    "眉": 6815,
    "看": 6816,
    "県": 6817,
    "眔": 6818,
    "真": 6819,
    "眠": 6820,
    "眨": 6821,
    "眯": 6822,
    "眼": 6823,
    "眾": 6824,
    "着": 6825,
    "睁": 6826,
    "睇": 6827,
    "睛": 6828,
    "睡": 6829,
    "督": 6830,
    "睥": 6831,
    "睿": 6832,
    "瞄": 6833,
    "瞎": 6834,
    "瞬": 6835,
    "瞭": 6836,
    "瞰": 6837,
    "瞳": 6838,
    "瞶": 6839,
    "瞻": 6840,
    "瞿": 6841,
    "矛": 6842,
    "矢": 6843,
    "矣": 6844,
    "知": 6845,
    "矩": 6846,
    "矫": 6847,
    "短": 6848,
    "矯": 6849,
    "石": 6850,
    "矿": 6851,
    "码": 6852,
    "砂": 6853,
    "砃": 6854,
    "砈": 6855,
    "砍": 6856,
    "研": 6857,
    "砖": 6858,
    "砞": 6859,
    "破": 6860,
    "砷": 6861,
    "砺": 6862,
    "础": 6863,
    "硅": 6864,
    "硕": 6865,
    "硝": 6866,
    "硬": 6867,
    "确": 6868,
    "碁": 6869,
    "碌": 6870,
    "碍": 6871,
    "碎": 6872,
    "碑": 6873,
    "碗": 6874,
    "碞": 6875,
    "碟": 6876,
    "碧": 6877,
    "碩": 6878,
    "碰": 6879,
    "碱": 6880,
    "碳": 6881,
    "確": 6882,
    "碼": 6883,
    "磁": 6884,
    "磅": 6885,
    "磊": 6886,
    "磐": 6887,
    "磨": 6888,
    "礎": 6889,
    "礘": 6890,
    "礙": 6891,
    "礛": 6892,
    "礦": 6893,
    "示": 6894,
    "礼": 6895,
    "社": 6896,
    "祈": 6897,
    "祖": 6898,
    "祘": 6899,
    "祜": 6900,
    "祝": 6901,
    "神": 6902,
    "祥": 6903,
    "票": 6904,
    "祭": 6905,
    "祯": 6906,
    "祲": 6907,
    "祸": 6908,
    "祺": 6909,
    "祿": 6910,
    "禁": 6911,
    "禅": 6912,
    "禍": 6913,
    "禎": 6914,
    "福": 6915,
    "禪": 6916,
    "禮": 6917,
    "禺": 6918,
    "离": 6919,
    "禿": 6920,
    "秀": 6921,
    "私": 6922,
    "秋": 6923,
    "种": 6924,
    "科": 6925,
    "秒": 6926,
    "秘": 6927,
    "租": 6928,
    "秤": 6929,
    "秦": 6930,
    "秩": 6931,
    "积": 6932,
    "称": 6933,
    "移": 6934,
    "稀": 6935,
    "稅": 6936,
    "程": 6937,
    "稍": 6938,
    "税": 6939,
    "稚": 6940,
    "種": 6941,
    "稱": 6942,
    "稲": 6943,
    "稳": 6944,
    "稻": 6945,
    "稼": 6946,
    "稽": 6947,
    "稿": 6948,
    "穂": 6949,
    "穆": 6950,
    "積": 6951,
    "穏": 6952,
    "穘": 6953,
    "穫": 6954,
    "穴": 6955,
    "究": 6956,
    "穷": 6957,
    "穹": 6958,
    "空": 6959,
    "穿": 6960,
    "突": 6961,
    "窃": 6962,
    "窄": 6963,
    "窈": 6964,
    "窓": 6965,
    "窕": 6966,
    "窗": 6967,
    "窘": 6968,
    "窝": 6969,
    "窟": 6970,
    "窩": 6971,
    "窮": 6972,
    "竄": 6973,
    "竈": 6974,
    "竊": 6975,
    "立": 6976,
    "竖": 6977,
    "站": 6978,
    "竞": 6979,
    "竟": 6980,
    "章": 6981,
    "童": 6982,
    "竭": 6983,
    "端": 6984,
    "競": 6985,
    "竹": 6986,
    "竺": 6987,
    "竽": 6988,
    "笃": 6989,
    "笑": 6990,
    "笔": 6991,
    "笙": 6992,
    "笛": 6993,
    "符": 6994,
    "笨": 6995,
    "第": 6996,
    "笼": 6997,
    "筆": 6998,
    "等": 6999,
    "筋": 7000,
    "筐": 7001,
    "筑": 7002,
    "筒": 7003,
    "答": 7004,
    "策": 7005,
    "筛": 7006,
    "筭": 7007,
    "筱": 7008,
    "筷": 7009,
    "筹": 7010,
    "签": 7011,
    "简": 7012,
    "箂": 7013,
    "箇": 7014,
    "箏": 7015,
    "算": 7016,
    "管": 7017,
    "箩": 7018,
    "箭": 7019,
    "箱": 7020,
    "節": 7021,
    "範": 7022,
    "篇": 7023,
    "篈": 7024,
    "築": 7025,
    "篠": 7026,
    "篡": 7027,
    "篩": 7028,
    "篷": 7029,
    "簇": 7030,
    "簡": 7031,
    "簧": 7032,
    "簽": 7033,
    "簿": 7034,
    "籍": 7035,
    "籠": 7036,
    "籤": 7037,
    "米": 7038,
    "类": 7039,
    "粂": 7040,
    "粄": 7041,
    "粉": 7042,
    "粒": 7043,
    "粗": 7044,
    "粘": 7045,
    "粤": 7046,
    "粥": 7047,
    "粵": 7048,
    "粹": 7049,
    "粽": 7050,
    "精": 7051,
    "粿": 7052,
    "糊": 7053,
    "糕": 7054,
    "糖": 7055,
    "糗": 7056,
    "糙": 7057,
    "糟": 7058,
    "糶": 7059,
    "糸": 7060,
    "系": 7061,
    "糾": 7062,
    "紀": 7063,
    "約": 7064,
    "紅": 7065,
    "納": 7066,
    "紐": 7067,
    "純": 7068,
    "紙": 7069,
    "級": 7070,
    "素": 7071,
    "索": 7072,
    "紧": 7073,
    "紫": 7074,
    "累": 7075,
    "細": 7076,
    "紹": 7077,
    "終": 7078,
    "組": 7079,
    "経": 7080,
    "結": 7081,
    "絕": 7082,
    "絛": 7083,
    "絞": 7084,
    "絡": 7085,
    "給": 7086,
    "統": 7087,
    "絲": 7088,
    "絵": 7089,
    "絶": 7090,
    "絹": 7091,
    "經": 7092,
    "継": 7093,
    "続": 7094,
    "綜": 7095,
    "綠": 7096,
    "綫": 7097,
    "維": 7098,
    "綱": 7099,
    "網": 7100,
    "綴": 7101,
    "緊": 7102,
    "総": 7103,
    "緑": 7104,
    "緒": 7105,
    "線": 7106,
    "締": 7107,
    "緣": 7108,
    "編": 7109,
    "緩": 7110,
    "緯": 7111,
    "練": 7112,
    "縁": 7113,
    "縄": 7114,
    "縝": 7115,
    "縣": 7116,
    "縦": 7117,
    "縮": 7118,
    "縱": 7119,
    "縷": 7120,
    "縺": 7121,
    "總": 7122,
    "績": 7123,
    "繁": 7124,
    "繊": 7125,
    "繋": 7126,
    "織": 7127,
    "繝": 7128,
    "繞": 7129,
    "繧": 7130,
    "繪": 7131,
    "繫": 7132,
    "繭": 7133,
    "繰": 7134,
    "繳": 7135,
    "繷": 7136,
    "繼": 7137,
    "續": 7138,
    "纠": 7139,
    "红": 7140,
    "纤": 7141,
    "约": 7142,
    "级": 7143,
    "纪": 7144,
    "纬": 7145,
    "纭": 7146,
    "纯": 7147,
    "纲": 7148,
    "纳": 7149,
    "纵": 7150,
    "纸": 7151,
    "纹": 7152,
    "纺": 7153,
    "纽": 7154,
    "线": 7155,
    "练": 7156,
    "组": 7157,
    "细": 7158,
    "织": 7159,
    "终": 7160,
    "绍": 7161,
    "绎": 7162,
    "经": 7163,
    "绑": 7164,
    "结": 7165,
    "绕": 7166,
    "绘": 7167,
    "给": 7168,
    "络": 7169,
    "绝": 7170,
    "统": 7171,
    "继": 7172,
    "绩": 7173,
    "绪": 7174,
    "续": 7175,
    "绮": 7176,
    "绰": 7177,
    "维": 7178,
    "综": 7179,
    "绿": 7180,
    "缀": 7181,
    "缅": 7182,
    "缆": 7183,
    "缉": 7184,
    "缓": 7185,
    "缕": 7186,
    "编": 7187,
    "缘": 7188,
    "缝": 7189,
    "缟": 7190,
    "缩": 7191,
    "缴": 7192,
    "缶": 7193,
    "缺": 7194,
    "罐": 7195,
    "网": 7196,
    "罗": 7197,
    "罚": 7198,
    "罢": 7199,
    "罩": 7200,
    "罪": 7201,
    "置": 7202,
    "罰": 7203,
    "署": 7204,
    "羃": 7205,
    "羅": 7206,
    "羊": 7207,
    "羌": 7208,
    "美": 7209,
    "羞": 7210,
    "群": 7211,
    "義": 7212,
    "羯": 7213,
    "羽": 7214,
    "翁": 7215,
    "翅": 7216,
    "翎": 7217,
    "習": 7218,
    "翔": 7219,
    "翘": 7220,
    "翟": 7221,
    "翠": 7222,
    "翯": 7223,
    "翰": 7224,
    "翳": 7225,
    "翻": 7226,
    "翼": 7227,
    "耀": 7228,
    "老": 7229,
    "考": 7230,
    "者": 7231,
    "而": 7232,
    "耐": 7233,
    "耕": 7234,
    "耗": 7235,
    "耦": 7236,
    "耳": 7237,
    "耶": 7238,
    "聂": 7239,
    "聊": 7240,
    "职": 7241,
    "联": 7242,
    "聖": 7243,
    "聘": 7244,
    "聚": 7245,
    "聞": 7246,
    "聯": 7247,
    "聰": 7248,
    "聲": 7249,
    "聴": 7250,
    "職": 7251,
    "聽": 7252,
    "肃": 7253,
    "肆": 7254,
    "肉": 7255,
    "肌": 7256,
    "肖": 7257,
    "肝": 7258,
    "肠": 7259,
    "股": 7260,
    "肢": 7261,
    "肤": 7262,
    "肥": 7263,
    "肩": 7264,
    "肪": 7265,
    "肯": 7266,
    "育": 7267,
    "肺": 7268,
    "胀": 7269,
    "胃": 7270,
    "胆": 7271,
    "背": 7272,
    "胖": 7273,
    "胚": 7274,
    "胜": 7275,
    "胞": 7276,
    "胡": 7277,
    "胤": 7278,
    "胥": 7279,
    "胴": 7280,
    "胶": 7281,
    "胸": 7282,
    "能": 7283,
    "脂": 7284,
    "脅": 7285,
    "脈": 7286,
    "脉": 7287,
    "脏": 7288,
    "脑": 7289,
    "脚": 7290,
    "脣": 7291,
    "脱": 7292,
    "脳": 7293,
    "脸": 7294,
    "脹": 7295,
    "脾": 7296,
    "腅": 7297,
    "腊": 7298,
    "腎": 7299,
    "腐": 7300,
    "腔": 7301,
    "腥": 7302,
    "腦": 7303,
    "腰": 7304,
    "腳": 7305,
    "腹": 7306,
    "腺": 7307,
    "腻": 7308,
    "腾": 7309,
    "腿": 7310,
    "膀": 7311,
    "膜": 7312,
    "膠": 7313,
    "膨": 7314,
    "臂": 7315,
    "臆": 7316,
    "臉": 7317,
    "臘": 7318,
    "臣": 7319,
    "臨": 7320,
    "自": 7321,
    "臭": 7322,
    "至": 7323,
    "致": 7324,
    "臺": 7325,
    "臻": 7326,
    "臼": 7327,
    "舅": 7328,
    "與": 7329,
    "興": 7330,
    "舉": 7331,
    "舌": 7332,
    "舍": 7333,
    "舒": 7334,
    "舞": 7335,
    "舟": 7336,
    "航": 7337,
    "般": 7338,
    "舰": 7339,
    "舱": 7340,
    "舵": 7341,
    "舶": 7342,
    "船": 7343,
    "舺": 7344,
    "艋": 7345,
    "艘": 7346,
    "艦": 7347,
    "良": 7348,
    "艰": 7349,
    "色": 7350,
    "艶": 7351,
    "艸": 7352,
    "艺": 7353,
    "艾": 7354,
    "节": 7355,
    "芋": 7356,
    "芒": 7357,
    "芝": 7358,
    "芦": 7359,
    "芬": 7360,
    "芭": 7361,
    "芯": 7362,
    "花": 7363,
    "芳": 7364,
    "芸": 7365,
    "芹": 7366,
    "芽": 7367,
    "苍": 7368,
    "苏": 7369,
    "苑": 7370,
    "苒": 7371,
    "苓": 7372,
    "苗": 7373,
    "苛": 7374,
    "苟": 7375,
    "苠": 7376,
    "若": 7377,
    "苦": 7378,
    "英": 7379,
    "苹": 7380,
    "范": 7381,
    "茅": 7382,
    "茉": 7383,
    "茎": 7384,
    "茨": 7385,
    "茫": 7386,
    "茯": 7387,
    "茲": 7388,
    "茵": 7389,
    "茶": 7390,
    "茺": 7391,
    "荀": 7392,
    "草": 7393,
    "荏": 7394,
    "荐": 7395,
    "荡": 7396,
    "荣": 7397,
    "荧": 7398,
    "药": 7399,
    "荷": 7400,
    "莎": 7401,
    "莓": 7402,
    "莫": 7403,
    "莱": 7404,
    "莴": 7405,
    "获": 7406,
    "莹": 7407,
    "莽": 7408,
    "菁": 7409,
    "菇": 7410,
    "菊": 7411,
    "菌": 7412,
    "菓": 7413,
    "菘": 7414,
    "菜": 7415,
    "菫": 7416,
    "華": 7417,
    "菱": 7418,
    "菲": 7419,
    "萃": 7420,
    "萄": 7421,
    "萌": 7422,
    "萍": 7423,
    "萎": 7424,
    "萝": 7425,
    "营": 7426,
    "萧": 7427,
    "萨": 7428,
    "萬": 7429,
    "萼": 7430,
    "落": 7431,
    "葉": 7432,
    "著": 7433,
    "葛": 7434,
    "葡": 7435,
    "董": 7436,
    "葬": 7437,
    "葱": 7438,
    "葵": 7439,
    "蒂": 7440,
    "蒋": 7441,
    "蒐": 7442,
    "蒙": 7443,
    "蒟": 7444,
    "蒲": 7445,
    "蒸": 7446,
    "蒻": 7447,
    "蒼": 7448,
    "蓀": 7449,
    "蓄": 7450,
    "蓉": 7451,
    "蓋": 7452,
    "蓝": 7453,
    "蓬": 7454,
    "蓮": 7455,
    "蔓": 7456,
    "蔔": 7457,
    "蔚": 7458,
    "蔡": 7459,
    "蔬": 7460,
    "蔵": 7461,
    "蔽": 7462,
    "蕉": 7463,
    "蕡": 7464,
    "蕨": 7465,
    "蕪": 7466,
    "蕭": 7467,
    "蕴": 7468,
    "蕾": 7469,
    "薄": 7470,
    "薦": 7471,
    "薩": 7472,
    "薪": 7473,
    "薫": 7474,
    "薬": 7475,
    "薯": 7476,
    "薰": 7477,
    "薺": 7478,
    "藉": 7479,
    "藍": 7480,
    "藏": 7481,
    "藝": 7482,
    "藤": 7483,
    "藥": 7484,
    "藩": 7485,
    "蘆": 7486,
    "蘇": 7487,
    "蘑": 7488,
    "蘭": 7489,
    "蘿": 7490,
    "虈": 7491,
    "虎": 7492,
    "虏": 7493,
    "虐": 7494,
    "虑": 7495,
    "處": 7496,
    "虚": 7497,
    "虛": 7498,
    "虞": 7499,
    "號": 7500,
    "虧": 7501,
    "虫": 7502,
    "虹": 7503,
    "虽": 7504,
    "虾": 7505,
    "蚀": 7506,
    "蚊": 7507,
    "蚧": 7508,
    "蛇": 7509,
    "蛋": 7510,
    "蛍": 7511,
    "蛙": 7512,
    "蛛": 7513,
    "蛤": 7514,
    "蛮": 7515,
    "蜂": 7516,
    "蜘": 7517,
    "蜜": 7518,
    "蜡": 7519,
    "蜥": 7520,
    "蜴": 7521,
    "蝎": 7522,
    "蝙": 7523,
    "蝠": 7524,
    "蝴": 7525,
    "蝶": 7526,
    "融": 7527,
    "螞": 7528,
    "螢": 7529,
    "螺": 7530,
    "蟆": 7531,
    "蟒": 7532,
    "蟲": 7533,
    "蟹": 7534,
    "蟻": 7535,
    "蠻": 7536,
    "血": 7537,
    "行": 7538,
    "衍": 7539,
    "術": 7540,
    "衔": 7541,
    "街": 7542,
    "衛": 7543,
    "衝": 7544,
    "衡": 7545,
    "衢": 7546,
    "衣": 7547,
    "补": 7548,
    "表": 7549,
    "衰": 7550,
    "衿": 7551,
    "袁": 7552,
    "袂": 7553,
    "袋": 7554,
    "袜": 7555,
    "袞": 7556,
    "袤": 7557,
    "被": 7558,
    "袭": 7559,
    "裁": 7560,
    "裂": 7561,
    "裃": 7562,
    "装": 7563,
    "裏": 7564,
    "裔": 7565,
    "裕": 7566,
    "裙": 7567,
    "補": 7568,
    "裝": 7569,
    "裡": 7570,
    "裸": 7571,
    "裹": 7572,
    "製": 7573,
    "複": 7574,
    "褐": 7575,
    "褒": 7576,
    "褯": 7577,
    "襟": 7578,
    "襦": 7579,
    "西": 7580,
    "要": 7581,
    "覆": 7582,
    "見": 7583,
    "規": 7584,
    "視": 7585,
    "覚": 7586,
    "覧": 7587,
    "親": 7588,
    "観": 7589,
    "覺": 7590,
    "覽": 7591,
    "觀": 7592,
    "见": 7593,
    "观": 7594,
    "规": 7595,
    "觅": 7596,
    "视": 7597,
    "览": 7598,
    "觉": 7599,
    "角": 7600,
    "解": 7601,
    "触": 7602,
    "觱": 7603,
    "觸": 7604,
    "言": 7605,
    "訂": 7606,
    "計": 7607,
    "訊": 7608,
    "討": 7609,
    "訐": 7610,
    "訓": 7611,
    "訖": 7612,
    "記": 7613,
    "訪": 7614,
    "設": 7615,
    "許": 7616,
    "訳": 7617,
    "訴": 7618,
    "診": 7619,
    "註": 7620,
    "証": 7621,
    "評": 7622,
    "詞": 7623,
    "詠": 7624,
    "詢": 7625,
    "詣": 7626,
    "試": 7627,
    "詮": 7628,
    "詰": 7629,
    "話": 7630,
    "該": 7631,
    "詳": 7632,
    "詹": 7633,
    "誇": 7634,
    "誉": 7635,
    "誌": 7636,
    "認": 7637,
    "誓": 7638,
    "誕": 7639,
    "語": 7640,
    "誠": 7641,
    "誤": 7642,
    "說": 7643,
    "説": 7644,
    "読": 7645,
    "誰": 7646,
    "課": 7647,
    "調": 7648,
    "談": 7649,
    "請": 7650,
    "論": 7651,
    "諗": 7652,
    "諦": 7653,
    "諧": 7654,
    "諺": 7655,
    "諾": 7656,
    "謁": 7657,
    "謂": 7658,
    "謎": 7659,
    "謙": 7660,
    "講": 7661,
    "謝": 7662,
    "謹": 7663,
    "證": 7664,
    "識": 7665,
    "譛": 7666,
    "譜": 7667,
    "警": 7668,
    "譬": 7669,
    "譯": 7670,
    "議": 7671,
    "譲": 7672,
    "護": 7673,
    "讀": 7674,
    "變": 7675,
    "讓": 7676,
    "讚": 7677,
    "计": 7678,
    "订": 7679,
    "认": 7680,
    "讨": 7681,
    "让": 7682,
    "讪": 7683,
    "训": 7684,
    "议": 7685,
    "讯": 7686,
    "记": 7687,
    "讲": 7688,
    "讷": 7689,
    "许": 7690,
    "论": 7691,
    "讼": 7692,
    "讽": 7693,
    "设": 7694,
    "访": 7695,
    "诀": 7696,
    "证": 7697,
    "评": 7698,
    "识": 7699,
    "诈": 7700,
    "诉": 7701,
    "诊": 7702,
    "词": 7703,
    "译": 7704,
    "试": 7705,
    "诗": 7706,
    "诚": 7707,
    "话": 7708,
    "诞": 7709,
    "诠": 7710,
    "询": 7711,
    "该": 7712,
    "详": 7713,
    "语": 7714,
    "误": 7715,
    "诱": 7716,
    "说": 7717,
    "诵": 7718,
    "请": 7719,
    "诸": 7720,
    "诺": 7721,
    "读": 7722,
    "课": 7723,
    "谁": 7724,
    "调": 7725,
    "谆": 7726,
    "谈": 7727,
    "谊": 7728,
    "谋": 7729,
    "谎": 7730,
    "谐": 7731,
    "谓": 7732,
    "谕": 7733,
    "谛": 7734,
    "谢": 7735,
    "谨": 7736,
    "谱": 7737,
    "谷": 7738,
    "豁": 7739,
    "豆": 7740,
    "豐": 7741,
    "豚": 7742,
    "象": 7743,
    "豪": 7744,
    "豫": 7745,
    "貌": 7746,
    "貝": 7747,
    "貞": 7748,
    "負": 7749,
    "財": 7750,
    "貢": 7751,
    "貨": 7752,
    "販": 7753,
    "貫": 7754,
    "責": 7755,
    "貮": 7756,
    "貳": 7757,
    "貴": 7758,
    "買": 7759,
    "貸": 7760,
    "費": 7761,
    "貼": 7762,
    "賀": 7763,
    "資": 7764,
    "賊": 7765,
    "賓": 7766,
    "賢": 7767,
    "賣": 7768,
    "賦": 7769,
    "質": 7770,
    "賴": 7771,
    "購": 7772,
    "賽": 7773,
    "贊": 7774,
    "贍": 7775,
    "贝": 7776,
    "负": 7777,
    "贡": 7778,
    "财": 7779,
    "责": 7780,
    "贤": 7781,
    "败": 7782,
    "账": 7783,
    "货": 7784,
    "质": 7785,
    "贪": 7786,
    "贬": 7787,
    "购": 7788,
    "贯": 7789,
    "贰": 7790,
    "贴": 7791,
    "贵": 7792,
    "贷": 7793,
    "贸": 7794,
    "费": 7795,
    "贺": 7796,
    "贾": 7797,
    "资": 7798,
    "赋": 7799,
    "赌": 7800,
    "赏": 7801,
    "赔": 7802,
    "赖": 7803,
    "赘": 7804,
    "赛": 7805,
    "赞": 7806,
    "赠": 7807,
    "赢": 7808,
    "赣": 7809,
    "赤": 7810,
    "赫": 7811,
    "走": 7812,
    "赵": 7813,
    "赶": 7814,
    "起": 7815,
    "趁": 7816,
    "超": 7817,
    "越": 7818,
    "趋": 7819,
    "趙": 7820,
    "趟": 7821,
    "趣": 7822,
    "足": 7823,
    "趸": 7824,
    "趾": 7825,
    "跃": 7826,
    "跋": 7827,
    "跌": 7828,
    "跑": 7829,
    "跛": 7830,
    "距": 7831,
    "跟": 7832,
    "跡": 7833,
    "跣": 7834,
    "跨": 7835,
    "跪": 7836,
    "路": 7837,
    "跳": 7838,
    "践": 7839,
    "跷": 7840,
    "踏": 7841,
    "踢": 7842,
    "踩": 7843,
    "踪": 7844,
    "蹈": 7845,
    "蹤": 7846,
    "蹩": 7847,
    "蹲": 7848,
    "躁": 7849,
    "躍": 7850,
    "身": 7851,
    "躬": 7852,
    "躯": 7853,
    "躲": 7854,
    "躺": 7855,
    "車": 7856,
    "軌": 7857,
    "軍": 7858,
    "軒": 7859,
    "軟": 7860,
    "転": 7861,
    "軸": 7862,
    "軽": 7863,
    "較": 7864,
    "載": 7865,
    "輕": 7866,
    "輝": 7867,
    "輩": 7868,
    "輪": 7869,
    "輯": 7870,
    "輸": 7871,
    "輻": 7872,
    "轄": 7873,
    "轉": 7874,
    "车": 7875,
    "轨": 7876,
    "轩": 7877,
    "转": 7878,
    "轭": 7879,
    "轮": 7880,
    "软": 7881,
    "轰": 7882,
    "轴": 7883,
    "轻": 7884,
    "轼": 7885,
    "载": 7886,
    "较": 7887,
    "辅": 7888,
    "辆": 7889,
    "辈": 7890,
    "辉": 7891,
    "辊": 7892,
    "辐": 7893,
    "辑": 7894,
    "输": 7895,
    "辖": 7896,
    "辛": 7897,
    "辞": 7898,
    "辟": 7899,
    "辦": 7900,
    "辨": 7901,
    "辩": 7902,
    "辰": 7903,
    "農": 7904,
    "边": 7905,
    "辺": 7906,
    "込": 7907,
    "辽": 7908,
    "达": 7909,
    "辿": 7910,
    "迁": 7911,
    "迄": 7912,
    "迅": 7913,
    "过": 7914,
    "迎": 7915,
    "运": 7916,
    "近": 7917,
    "返": 7918,
    "还": 7919,
    "这": 7920,
    "进": 7921,
    "远": 7922,
    "违": 7923,
    "连": 7924,
    "迟": 7925,
    "迥": 7926,
    "迪": 7927,
    "迫": 7928,
    "迭": 7929,
    "述": 7930,
    "迴": 7931,
    "迷": 7932,
    "迹": 7933,
    "追": 7934,
    "退": 7935,
    "送": 7936,
    "适": 7937,
    "逃": 7938,
    "逆": 7939,
    "选": 7940,
    "逊": 7941,
    "透": 7942,
    "逐": 7943,
    "递": 7944,
    "途": 7945,
    "逗": 7946,
    "這": 7947,
    "通": 7948,
    "逛": 7949,
    "逝": 7950,
    "速": 7951,
    "造": 7952,
    "逢": 7953,
    "連": 7954,
    "週": 7955,
    "進": 7956,
    "逵": 7957,
    "逸": 7958,
    "逻": 7959,
    "逼": 7960,
    "逾": 7961,
    "遁": 7962,
    "遅": 7963,
    "遇": 7964,
    "遊": 7965,
    "運": 7966,
    "遍": 7967,
    "過": 7968,
    "道": 7969,
    "達": 7970,
    "違": 7971,
    "遗": 7972,
    "遞": 7973,
    "遠": 7974,
    "遢": 7975,
    "遣": 7976,
    "遥": 7977,
    "適": 7978,
    "遭": 7979,
    "遮": 7980,
    "遲": 7981,
    "遴": 7982,
    "遵": 7983,
    "遷": 7984,
    "選": 7985,
    "遺": 7986,
    "遼": 7987,
    "避": 7988,
    "邀": 7989,
    "還": 7990,
    "邊": 7991,
    "邋": 7992,
    "邏": 7993,
    "邓": 7994,
    "邢": 7995,
    "那": 7996,
    "邦": 7997,
    "邪": 7998,
    "邮": 7999,
    "邻": 8000,
    "郁": 8001,
    "郅": 8002,
    "郎": 8003,
    "郑": 8004,
    "郗": 8005,
    "郝": 8006,
    "郡": 8007,
    "部": 8008,
    "郭": 8009,
    "郵": 8010,
    "郷": 8011,
    "都": 8012,
    "鄂": 8013,
    "鄙": 8014,
    "鄭": 8015,
    "鄰": 8016,
    "酉": 8017,
    "酋": 8018,
    "酌": 8019,
    "配": 8020,
    "酎": 8021,
    "酒": 8022,
    "酥": 8023,
    "酪": 8024,
    "酬": 8025,
    "酵": 8026,
    "酷": 8027,
    "酸": 8028,
    "酿": 8029,
    "醒": 8030,
    "醫": 8031,
    "采": 8032,
    "釈": 8033,
    "释": 8034,
    "釋": 8035,
    "里": 8036,
    "重": 8037,
    "野": 8038,
    "量": 8039,
    "金": 8040,
    "釜": 8041,
    "針": 8042,
    "釣": 8043,
    "鈕": 8044,
    "鈥": 8045,
    "鈴": 8046,
    "鈺": 8047,
    "鉄": 8048,
    "鉛": 8049,
    "鉢": 8050,
    "鉱": 8051,
    "鉴": 8052,
    "銀": 8053,
    "銃": 8054,
    "銅": 8055,
    "銓": 8056,
    "銖": 8057,
    "銘": 8058,
    "銳": 8059,
    "鋒": 8060,
    "鋭": 8061,
    "鋼": 8062,
    "錄": 8063,
    "錢": 8064,
    "錦": 8065,
    "錯": 8066,
    "録": 8067,
    "鍋": 8068,
    "鍜": 8069,
    "鍵": 8070,
    "鎊": 8071,
    "鎌": 8072,
    "鎖": 8073,
    "鎮": 8074,
    "鏈": 8075,
    "鏡": 8076,
    "鐓": 8077,
    "鐘": 8078,
    "鐱": 8079,
    "鐵": 8080,
    "鐸": 8081,
    "鑑": 8082,
    "鑫": 8083,
    "鑰": 8084,
    "针": 8085,
    "钉": 8086,
    "钓": 8087,
    "钟": 8088,
    "钢": 8089,
    "钥": 8090,
    "钦": 8091,
    "钩": 8092,
    "钮": 8093,
    "钱": 8094,
    "钵": 8095,
    "钻": 8096,
    "钾": 8097,
    "铁": 8098,
    "铂": 8099,
    "铃": 8100,
    "铅": 8101,
    "铛": 8102,
    "铜": 8103,
    "铝": 8104,
    "铭": 8105,
    "银": 8106,
    "铸": 8107,
    "铺": 8108,
    "链": 8109,
    "销": 8110,
    "锁": 8111,
    "锅": 8112,
    "锈": 8113,
    "锉": 8114,
    "锋": 8115,
    "锐": 8116,
    "错": 8117,
    "锚": 8118,
    "锡": 8119,
    "锣": 8120,
    "锤": 8121,
    "锥": 8122,
    "锦": 8123,
    "键": 8124,
    "锯": 8125,
    "锵": 8126,
    "镀": 8127,
    "镇": 8128,
    "镑": 8129,
    "镜": 8130,
    "镧": 8131,
    "镯": 8132,
    "長": 8133,
    "长": 8134,
    "門": 8135,
    "閉": 8136,
    "開": 8137,
    "閏": 8138,
    "閑": 8139,
    "閒": 8140,
    "間": 8141,
    "関": 8142,
    "閣": 8143,
    "閱": 8144,
    "閲": 8145,
    "閾": 8146,
    "闌": 8147,
    "關": 8148,
    "闡": 8149,
    "门": 8150,
    "闩": 8151,
    "闪": 8152,
    "闫": 8153,
    "闭": 8154,
    "问": 8155,
    "闯": 8156,
    "闰": 8157,
    "闲": 8158,
    "间": 8159,
    "闵": 8160,
    "闸": 8161,
    "闹": 8162,
    "闻": 8163,
    "闽": 8164,
    "阀": 8165,
    "阁": 8166,
    "阅": 8167,
    "阈": 8168,
    "阎": 8169,
    "阐": 8170,
    "阙": 8171,
    "阜": 8172,
    "队": 8173,
    "阪": 8174,
    "阱": 8175,
    "防": 8176,
    "阳": 8177,
    "阴": 8178,
    "阵": 8179,
    "阶": 8180,
    "阻": 8181,
    "阿": 8182,
    "陀": 8183,
    "附": 8184,
    "际": 8185,
    "陆": 8186,
    "陇": 8187,
    "陈": 8188,
    "陋": 8189,
    "陌": 8190,
    "降": 8191,
    "限": 8192,
    "陕": 8193,
    "陡": 8194,
    "院": 8195,
    "陣": 8196,
    "除": 8197,
    "陥": 8198,
    "险": 8199,
    "陰": 8200,
    "陳": 8201,
    "陵": 8202,
    "陶": 8203,
    "陷": 8204,
    "陸": 8205,
    "険": 8206,
    "陽": 8207,
    "隅": 8208,
    "隆": 8209,
    "隊": 8210,
    "隋": 8211,
    "階": 8212,
    "随": 8213,
    "隐": 8214,
    "隔": 8215,
    "隙": 8216,
    "際": 8217,
    "障": 8218,
    "隠": 8219,
    "隧": 8220,
    "隨": 8221,
    "險": 8222,
    "隱": 8223,
    "隶": 8224,
    "隸": 8225,
    "隻": 8226,
    "难": 8227,
    "雀": 8228,
    "雁": 8229,
    "雄": 8230,
    "雅": 8231,
    "集": 8232,
    "雇": 8233,
    "雍": 8234,
    "雎": 8235,
    "雑": 8236,
    "雕": 8237,
    "雖": 8238,
    "雙": 8239,
    "雛": 8240,
    "雜": 8241,
    "雞": 8242,
    "離": 8243,
    "難": 8244,
    "雨": 8245,
    "雪": 8246,
    "雲": 8247,
    "零": 8248,
    "雷": 8249,
    "電": 8250,
    "雾": 8251,
    "需": 8252,
    "霁": 8253,
    "霄": 8254,
    "震": 8255,
    "霊": 8256,
    "霍": 8257,
    "霖": 8258,
    "霜": 8259,
    "霞": 8260,
    "露": 8261,
    "霸": 8262,
    "霽": 8263,
    "霾": 8264,
    "靈": 8265,
    "靑": 8266,
    "青": 8267,
    "靖": 8268,
    "静": 8269,
    "靛": 8270,
    "靜": 8271,
    "非": 8272,
    "靠": 8273,
    "面": 8274,
    "革": 8275,
    "靰": 8276,
    "靴": 8277,
    "靶": 8278,
    "鞋": 8279,
    "鞒": 8280,
    "韓": 8281,
    "韦": 8282,
    "韩": 8283,
    "韭": 8284,
    "音": 8285,
    "韵": 8286,
    "韶": 8287,
    "韻": 8288,
    "響": 8289,
    "頁": 8290,
    "頂": 8291,
    "項": 8292,
    "順": 8293,
    "須": 8294,
    "預": 8295,
    "頑": 8296,
    "頓": 8297,
    "領": 8298,
    "頭": 8299,
    "頻": 8300,
    "頼": 8301,
    "題": 8302,
    "額": 8303,
    "顎": 8304,
    "顏": 8305,
    "顔": 8306,
    "顕": 8307,
    "願": 8308,
    "類": 8309,
    "顯": 8310,
    "页": 8311,
    "顶": 8312,
    "顷": 8313,
    "项": 8314,
    "顺": 8315,
    "须": 8316,
    "顾": 8317,
    "顿": 8318,
    "颁": 8319,
    "预": 8320,
    "领": 8321,
    "颇": 8322,
    "颈": 8323,
    "频": 8324,
    "颖": 8325,
    "颗": 8326,
    "题": 8327,
    "颜": 8328,
    "额": 8329,
    "颠": 8330,
    "風": 8331,
    "风": 8332,
    "飒": 8333,
    "飓": 8334,
    "飘": 8335,
    "飙": 8336,
    "飛": 8337,
    "飞": 8338,
    "食": 8339,
    "飢": 8340,
    "飯": 8341,
    "飲": 8342,
    "飼": 8343,
    "飽": 8344,
    "飾": 8345,
    "餅": 8346,
    "養": 8347,
    "餐": 8348,
    "餓": 8349,
    "餘": 8350,
    "館": 8351,
    "饋": 8352,
    "饭": 8353,
    "饮": 8354,
    "饰": 8355,
    "饱": 8356,
    "饺": 8357,
    "饼": 8358,
    "饿": 8359,
    "馃": 8360,
    "馆": 8361,
    "馈": 8362,
    "馏": 8363,
    "首": 8364,
    "香": 8365,
    "馨": 8366,
    "馬": 8367,
    "駁": 8368,
    "駄": 8369,
    "駅": 8370,
    "駆": 8371,
    "駐": 8372,
    "駒": 8373,
    "駿": 8374,
    "騎": 8375,
    "験": 8376,
    "騫": 8377,
    "騰": 8378,
    "驀": 8379,
    "驅": 8380,
    "驗": 8381,
    "驚": 8382,
    "驟": 8383,
    "马": 8384,
    "驮": 8385,
    "驰": 8386,
    "驱": 8387,
    "驳": 8388,
    "驴": 8389,
    "驶": 8390,
    "驻": 8391,
    "驼": 8392,
    "驾": 8393,
    "驿": 8394,
    "骂": 8395,
    "骆": 8396,
    "骊": 8397,
    "验": 8398,
    "骑": 8399,
    "骗": 8400,
    "骙": 8401,
    "骚": 8402,
    "骤": 8403,
    "骨": 8404,
    "骰": 8405,
    "骷": 8406,
    "骸": 8407,
    "骼": 8408,
    "髅": 8409,
    "體": 8410,
    "高": 8411,
    "鬆": 8412,
    "鬚": 8413,
    "鬧": 8414,
    "鬱": 8415,
    "鬼": 8416,
    "魁": 8417,
    "魂": 8418,
    "魅": 8419,
    "魏": 8420,
    "魔": 8421,
    "魚": 8422,
    "魯": 8423,
    "鮮": 8424,
    "鯖": 8425,
    "鯨": 8426,
    "鯰": 8427,
    "鱼": 8428,
    "鲁": 8429,
    "鲋": 8430,
    "鲜": 8431,
    "鲭": 8432,
    "鲸": 8433,
    "鳗": 8434,
    "鳞": 8435,
    "鳳": 8436,
    "鳴": 8437,
    "鶏": 8438,
    "鶴": 8439,
    "鸟": 8440,
    "鸡": 8441,
    "鸢": 8442,
    "鸫": 8443,
    "鸭": 8444,
    "鸿": 8445,
    "鹃": 8446,
    "鹉": 8447,
    "鹤": 8448,
    "鹦": 8449,
    "鹰": 8450,
    "鹿": 8451,
    "麦": 8452,
    "麵": 8453,
    "麻": 8454,
    "麼": 8455,
    "麽": 8456,
    "黃": 8457,
    "黄": 8458,
    "黎": 8459,
    "黏": 8460,
    "黑": 8461,
    "黒": 8462,
    "默": 8463,
    "黛": 8464,
    "點": 8465,
    "鼓": 8466,
    "鼠": 8467,
    "鼻": 8468,
    "齊": 8469,
    "齐": 8470,
    "齢": 8471,
    "齿": 8472,
    "龄": 8473,
    "龍": 8474,
    "龙": 8475,
    "龟": 8476,
    "龱": 8477,
    "ꓴ": 8478,
    "ꙍ": 8479,
    "ꙗ": 8480,
    "ꙮ": 8481,
    "Ꚙ": 8482,
    "꜀": 8483,
    "ꜱ": 8484,
    "ꝗ": 8485,
    "ꞈ": 8486,
    "ꞌ": 8487,
    "Ꞩ": 8488,
    "Ʇ": 8489,
    "꠸": 8490,
    "ꡏ": 8491,
    "ꢁ": 8492,
    "ꢂ": 8493,
    "ꢃ": 8494,
    "ꢄ": 8495,
    "ꢅ": 8496,
    "ꢆ": 8497,
    "ꢇ": 8498,
    "ꢈ": 8499,
    "ꢉ": 8500,
    "ꢊ": 8501,
    "ꢋ": 8502,
    "ꢌ": 8503,
    "ꢍ": 8504,
    "ꢎ": 8505,
    "ꢏ": 8506,
    "ꢓ": 8507,
    "ꢔ": 8508,
    "ꢕ": 8509,
    "ꢖ": 8510,
    "ꢗ": 8511,
    "ꢘ": 8512,
    "ꫳ": 8513,
    "ꬲ": 8514,
    "ꮪ": 8515,
    "가": 8516,
    "각": 8517,
    "갂": 8518,
    "갃": 8519,
    "간": 8520,
    "갅": 8521,
    "갆": 8522,
    "갇": 8523,
    "갈": 8524,
    "갉": 8525,
    "갊": 8526,
    "갋": 8527,
    "갌": 8528,
    "갍": 8529,
    "갎": 8530,
    "갏": 8531,
    "감": 8532,
    "갑": 8533,
    "값": 8534,
    "갓": 8535,
    "갔": 8536,
    "강": 8537,
    "갖": 8538,
    "갗": 8539,
    "갘": 8540,
    "같": 8541,
    "갚": 8542,
    "갛": 8543,
    "개": 8544,
    "객": 8545,
    "갞": 8546,
    "갟": 8547,
    "갠": 8548,
    "갡": 8549,
    "갢": 8550,
    "갣": 8551,
    "갤": 8552,
    "갥": 8553,
    "갦": 8554,
    "갧": 8555,
    "갨": 8556,
    "갩": 8557,
    "갪": 8558,
    "갫": 8559,
    "갬": 8560,
    "갭": 8561,
    "갮": 8562,
    "갯": 8563,
    "갰": 8564,
    "갱": 8565,
    "갲": 8566,
    "갳": 8567,
    "갴": 8568,
    "갵": 8569,
    "갶": 8570,
    "갷": 8571,
    "갸": 8572,
    "갹": 8573,
    "갺": 8574,
    "갻": 8575,
    "갼": 8576,
    "갽": 8577,
    "갾": 8578,
    "갿": 8579,
    "걀": 8580,
    "걁": 8581,
    "걂": 8582,
    "걃": 8583,
    "걄": 8584,
    "걅": 8585,
    "걆": 8586,
    "걇": 8587,
    "걈": 8588,
    "걉": 8589,
    "걊": 8590,
    "걋": 8591,
    "걌": 8592,
    "걍": 8593,
    "걎": 8594,
    "걏": 8595,
    "걐": 8596,
    "걑": 8597,
    "걒": 8598,
    "걓": 8599,
    "걔": 8600,
    "걕": 8601,
    "걖": 8602,
    "걗": 8603,
    "걘": 8604,
    "걙": 8605,
    "걚": 8606,
    "걛": 8607,
    "걜": 8608,
    "걝": 8609,
    "걞": 8610,
    "걟": 8611,
    "걠": 8612,
    "걡": 8613,
    "걢": 8614,
    "걣": 8615,
    "걤": 8616,
    "걥": 8617,
    "걦": 8618,
    "걧": 8619,
    "걨": 8620,
    "걩": 8621,
    "걪": 8622,
    "걫": 8623,
    "걬": 8624,
    "걭": 8625,
    "걮": 8626,
    "걯": 8627,
    "거": 8628,
    "걱": 8629,
    "걲": 8630,
    "걳": 8631,
    "건": 8632,
    "걵": 8633,
    "걶": 8634,
    "걷": 8635,
    "걸": 8636,
    "걹": 8637,
    "걺": 8638,
    "걻": 8639,
    "걼": 8640,
    "걽": 8641,
    "걾": 8642,
    "걿": 8643,
    "검": 8644,
    "겁": 8645,
    "겂": 8646,
    "것": 8647,
    "겄": 8648,
    "겅": 8649,
    "겆": 8650,
    "겇": 8651,
    "겈": 8652,
    "겉": 8653,
    "겊": 8654,
    "겋": 8655,
    "게": 8656,
    "겍": 8657,
    "겎": 8658,
    "겏": 8659,
    "겐": 8660,
    "겑": 8661,
    "겒": 8662,
    "겓": 8663,
    "겔": 8664,
    "겕": 8665,
    "겖": 8666,
    "겗": 8667,
    "겘": 8668,
    "겙": 8669,
    "겚": 8670,
    "겛": 8671,
    "겜": 8672,
    "겝": 8673,
    "겞": 8674,
    "겟": 8675,
    "겠": 8676,
    "겡": 8677,
    "겢": 8678,
    "겣": 8679,
    "겤": 8680,
    "겥": 8681,
    "겦": 8682,
    "겧": 8683,
    "겨": 8684,
    "격": 8685,
    "겪": 8686,
    "겫": 8687,
    "견": 8688,
    "겭": 8689,
    "겮": 8690,
    "겯": 8691,
    "결": 8692,
    "겱": 8693,
    "겲": 8694,
    "겳": 8695,
    "겴": 8696,
    "겵": 8697,
    "겶": 8698,
    "겷": 8699,
    "겸": 8700,
    "겹": 8701,
    "겺": 8702,
    "겻": 8703,
    "겼": 8704,
    "경": 8705,
    "겾": 8706,
    "겿": 8707,
    "곀": 8708,
    "곁": 8709,
    "곂": 8710,
    "곃": 8711,
    "계": 8712,
    "곅": 8713,
    "곆": 8714,
    "곇": 8715,
    "곈": 8716,
    "곉": 8717,
    "곊": 8718,
    "곋": 8719,
    "곌": 8720,
    "곍": 8721,
    "곎": 8722,
    "곏": 8723,
    "곐": 8724,
    "곑": 8725,
    "곒": 8726,
    "곓": 8727,
    "곔": 8728,
    "곕": 8729,
    "곖": 8730,
    "곗": 8731,
    "곘": 8732,
    "곙": 8733,
    "곚": 8734,
    "곛": 8735,
    "곜": 8736,
    "곝": 8737,
    "곞": 8738,
    "곟": 8739,
    "고": 8740,
    "곡": 8741,
    "곢": 8742,
    "곣": 8743,
    "곤": 8744,
    "곥": 8745,
    "곦": 8746,
    "곧": 8747,
    "골": 8748,
    "곩": 8749,
    "곪": 8750,
    "곫": 8751,
    "곬": 8752,
    "곭": 8753,
    "곮": 8754,
    "곯": 8755,
    "곰": 8756,
    "곱": 8757,
    "곲": 8758,
    "곳": 8759,
    "곴": 8760,
    "공": 8761,
    "곶": 8762,
    "곷": 8763,
    "곸": 8764,
    "곹": 8765,
    "곺": 8766,
    "곻": 8767,
    "과": 8768,
    "곽": 8769,
    "곾": 8770,
    "곿": 8771,
    "관": 8772,
    "괄": 8773,
    "광": 8774,
    "괜": 8775,
    "굉": 8776,
    "교": 8777,
    "구": 8778,
    "국": 8779,
    "군": 8780,
    "굴": 8781,
    "굿": 8782,
    "궁": 8783,
    "권": 8784,
    "궤": 8785,
    "귀": 8786,
    "귁": 8787,
    "규": 8788,
    "균": 8789,
    "그": 8790,
    "극": 8791,
    "근": 8792,
    "글": 8793,
    "긁": 8794,
    "금": 8795,
    "급": 8796,
    "긍": 8797,
    "기": 8798,
    "긴": 8799,
    "길": 8800,
    "김": 8801,
    "깃": 8802,
    "깅": 8803,
    "까": 8804,
    "깍": 8805,
    "깜": 8806,
    "깨": 8807,
    "꺼": 8808,
    "께": 8809,
    "꼬": 8810,
    "꼭": 8811,
    "꽁": 8812,
    "꽈": 8813,
    "꽌": 8814,
    "꽝": 8815,
    "꾸": 8816,
    "꾼": 8817,
    "꿀": 8818,
    "꿈": 8819,
    "꿔": 8820,
    "꿨": 8821,
    "뀌": 8822,
    "뀐": 8823,
    "끊": 8824,
    "끌": 8825,
    "끔": 8826,
    "끗": 8827,
    "끝": 8828,
    "끼": 8829,
    "낌": 8830,
    "나": 8831,
    "난": 8832,
    "날": 8833,
    "남": 8834,
    "납": 8835,
    "낫": 8836,
    "났": 8837,
    "낭": 8838,
    "낮": 8839,
    "내": 8840,
    "낸": 8841,
    "낼": 8842,
    "냄": 8843,
    "냅": 8844,
    "냈": 8845,
    "냉": 8846,
    "냐": 8847,
    "냔": 8848,
    "냣": 8849,
    "냥": 8850,
    "너": 8851,
    "널": 8852,
    "넓": 8853,
    "넘": 8854,
    "넙": 8855,
    "넡": 8856,
    "넣": 8857,
    "네": 8858,
    "넥": 8859,
    "넷": 8860,
    "녀": 8861,
    "녁": 8862,
    "년": 8863,
    "념": 8864,
    "녕": 8865,
    "녜": 8866,
    "노": 8867,
    "논": 8868,
    "놀": 8869,
    "높": 8870,
    "놓": 8871,
    "뇨": 8872,
    "뇰": 8873,
    "누": 8874,
    "눅": 8875,
    "눈": 8876,
    "눌": 8877,
    "눔": 8878,
    "눠": 8879,
    "뉴": 8880,
    "늄": 8881,
    "느": 8882,
    "는": 8883,
    "늘": 8884,
    "능": 8885,
    "니": 8886,
    "닉": 8887,
    "닌": 8888,
    "닐": 8889,
    "님": 8890,
    "닙": 8891,
    "닝": 8892,
    "다": 8893,
    "닥": 8894,
    "단": 8895,
    "닫": 8896,
    "달": 8897,
    "닭": 8898,
    "담": 8899,
    "답": 8900,
    "당": 8901,
    "대": 8902,
    "댐": 8903,
    "댓": 8904,
    "댔": 8905,
    "더": 8906,
    "덕": 8907,
    "던": 8908,
    "덜": 8909,
    "덟": 8910,
    "덤": 8911,
    "덧": 8912,
    "덮": 8913,
    "데": 8914,
    "덱": 8915,
    "델": 8916,
    "뎀": 8917,
    "뎌": 8918,
    "도": 8919,
    "독": 8920,
    "돈": 8921,
    "돋": 8922,
    "돌": 8923,
    "동": 8924,
    "돼": 8925,
    "됐": 8926,
    "되": 8927,
    "된": 8928,
    "될": 8929,
    "됨": 8930,
    "됩": 8931,
    "두": 8932,
    "둔": 8933,
    "둘": 8934,
    "둥": 8935,
    "뒤": 8936,
    "듈": 8937,
    "듕": 8938,
    "드": 8939,
    "득": 8940,
    "든": 8941,
    "들": 8942,
    "듦": 8943,
    "듬": 8944,
    "듭": 8945,
    "듯": 8946,
    "등": 8947,
    "디": 8948,
    "딕": 8949,
    "딥": 8950,
    "딩": 8951,
    "따": 8952,
    "딸": 8953,
    "땅": 8954,
    "때": 8955,
    "땐": 8956,
    "떠": 8957,
    "떡": 8958,
    "떤": 8959,
    "떨": 8960,
    "떻": 8961,
    "떼": 8962,
    "또": 8963,
    "똑": 8964,
    "뛰": 8965,
    "뜨": 8966,
    "뜻": 8967,
    "띄": 8968,
    "라": 8969,
    "락": 8970,
    "란": 8971,
    "랄": 8972,
    "람": 8973,
    "랍": 8974,
    "랏": 8975,
    "랐": 8976,
    "랑": 8977,
    "래": 8978,
    "랙": 8979,
    "랜": 8980,
    "램": 8981,
    "랫": 8982,
    "랭": 8983,
    "랴": 8984,
    "략": 8985,
    "량": 8986,
    "러": 8987,
    "럭": 8988,
    "런": 8989,
    "럴": 8990,
    "럼": 8991,
    "렀": 8992,
    "렁": 8993,
    "렇": 8994,
    "레": 8995,
    "렉": 8996,
    "렌": 8997,
    "렐": 8998,
    "려": 8999,
    "력": 9000,
    "련": 9001,
    "렬": 9002,
    "렴": 9003,
    "렵": 9004,
    "렸": 9005,
    "령": 9006,
    "례": 9007,
    "롕": 9008,
    "로": 9009,
    "록": 9010,
    "론": 9011,
    "롤": 9012,
    "롬": 9013,
    "롭": 9014,
    "롯": 9015,
    "롱": 9016,
    "뢅": 9017,
    "뢰": 9018,
    "료": 9019,
    "루": 9020,
    "룹": 9021,
    "뤄": 9022,
    "류": 9023,
    "률": 9024,
    "르": 9025,
    "른": 9026,
    "를": 9027,
    "름": 9028,
    "릅": 9029,
    "릇": 9030,
    "리": 9031,
    "릭": 9032,
    "린": 9033,
    "릴": 9034,
    "림": 9035,
    "립": 9036,
    "릿": 9037,
    "링": 9038,
    "마": 9039,
    "막": 9040,
    "만": 9041,
    "많": 9042,
    "말": 9043,
    "맑": 9044,
    "맛": 9045,
    "망": 9046,
    "맞": 9047,
    "맡": 9048,
    "맣": 9049,
    "매": 9050,
    "맥": 9051,
    "맨": 9052,
    "맴": 9053,
    "맵": 9054,
    "맺": 9055,
    "머": 9056,
    "먹": 9057,
    "먼": 9058,
    "멀": 9059,
    "멈": 9060,
    "메": 9061,
    "멘": 9062,
    "멤": 9063,
    "며": 9064,
    "면": 9065,
    "멸": 9066,
    "명": 9067,
    "몇": 9068,
    "몌": 9069,
    "모": 9070,
    "목": 9071,
    "몫": 9072,
    "몬": 9073,
    "몸": 9074,
    "못": 9075,
    "몽": 9076,
    "무": 9077,
    "묶": 9078,
    "문": 9079,
    "물": 9080,
    "뭉": 9081,
    "뭏": 9082,
    "뭐": 9083,
    "뭘": 9084,
    "므": 9085,
    "믐": 9086,
    "미": 9087,
    "믹": 9088,
    "민": 9089,
    "밀": 9090,
    "밋": 9091,
    "밍": 9092,
    "및": 9093,
    "밑": 9094,
    "바": 9095,
    "박": 9096,
    "밖": 9097,
    "반": 9098,
    "밙": 9099,
    "받": 9100,
    "발": 9101,
    "밝": 9102,
    "밢": 9103,
    "밣": 9104,
    "밤": 9105,
    "밥": 9106,
    "밧": 9107,
    "방": 9108,
    "밪": 9109,
    "배": 9110,
    "백": 9111,
    "밸": 9112,
    "뱀": 9113,
    "버": 9114,
    "번": 9115,
    "벌": 9116,
    "범": 9117,
    "법": 9118,
    "벗": 9119,
    "베": 9120,
    "벡": 9121,
    "벤": 9122,
    "벨": 9123,
    "벳": 9124,
    "변": 9125,
    "별": 9126,
    "병": 9127,
    "보": 9128,
    "복": 9129,
    "볶": 9130,
    "본": 9131,
    "볼": 9132,
    "봄": 9133,
    "봇": 9134,
    "봉": 9135,
    "봎": 9136,
    "봐": 9137,
    "봤": 9138,
    "부": 9139,
    "북": 9140,
    "분": 9141,
    "불": 9142,
    "붙": 9143,
    "뷁": 9144,
    "뷰": 9145,
    "브": 9146,
    "블": 9147,
    "비": 9148,
    "빈": 9149,
    "빌": 9150,
    "빔": 9151,
    "빙": 9152,
    "빠": 9153,
    "빡": 9154,
    "빨": 9155,
    "빵": 9156,
    "빼": 9157,
    "빽": 9158,
    "뺐": 9159,
    "뺴": 9160,
    "뼈": 9161,
    "뽑": 9162,
    "뽕": 9163,
    "뿌": 9164,
    "뿔": 9165,
    "쁜": 9166,
    "쁠": 9167,
    "쁨": 9168,
    "쁫": 9169,
    "삐": 9170,
    "사": 9171,
    "삭": 9172,
    "산": 9173,
    "살": 9174,
    "삼": 9175,
    "삽": 9176,
    "샀": 9177,
    "상": 9178,
    "새": 9179,
    "색": 9180,
    "샌": 9181,
    "샐": 9182,
    "샘": 9183,
    "생": 9184,
    "샤": 9185,
    "샷": 9186,
    "서": 9187,
    "석": 9188,
    "섞": 9189,
    "선": 9190,
    "설": 9191,
    "섬": 9192,
    "섯": 9193,
    "성": 9194,
    "세": 9195,
    "섹": 9196,
    "센": 9197,
    "셀": 9198,
    "셈": 9199,
    "셋": 9200,
    "셔": 9201,
    "션": 9202,
    "셨": 9203,
    "셰": 9204,
    "셴": 9205,
    "소": 9206,
    "속": 9207,
    "손": 9208,
    "솔": 9209,
    "송": 9210,
    "쇄": 9211,
    "수": 9212,
    "숙": 9213,
    "순": 9214,
    "술": 9215,
    "숨": 9216,
    "숫": 9217,
    "쉐": 9218,
    "쉘": 9219,
    "쉬": 9220,
    "쉼": 9221,
    "쉽": 9222,
    "슈": 9223,
    "스": 9224,
    "슨": 9225,
    "슬": 9226,
    "슴": 9227,
    "습": 9228,
    "슷": 9229,
    "승": 9230,
    "시": 9231,
    "식": 9232,
    "신": 9233,
    "실": 9234,
    "심": 9235,
    "십": 9236,
    "싱": 9237,
    "싶": 9238,
    "싸": 9239,
    "쌀": 9240,
    "쌈": 9241,
    "쌍": 9242,
    "쌓": 9243,
    "써": 9244,
    "썬": 9245,
    "썼": 9246,
    "쎄": 9247,
    "쎼": 9248,
    "쏢": 9249,
    "쏩": 9250,
    "쓰": 9251,
    "쓴": 9252,
    "쓸": 9253,
    "씀": 9254,
    "씌": 9255,
    "씨": 9256,
    "씩": 9257,
    "씬": 9258,
    "아": 9259,
    "악": 9260,
    "안": 9261,
    "않": 9262,
    "알": 9263,
    "압": 9264,
    "앗": 9265,
    "았": 9266,
    "앙": 9267,
    "앞": 9268,
    "애": 9269,
    "액": 9270,
    "앤": 9271,
    "앨": 9272,
    "앱": 9273,
    "야": 9274,
    "약": 9275,
    "얀": 9276,
    "양": 9277,
    "얘": 9278,
    "어": 9279,
    "억": 9280,
    "언": 9281,
    "얻": 9282,
    "얼": 9283,
    "엄": 9284,
    "업": 9285,
    "없": 9286,
    "었": 9287,
    "엉": 9288,
    "에": 9289,
    "엑": 9290,
    "엔": 9291,
    "엘": 9292,
    "엠": 9293,
    "엡": 9294,
    "여": 9295,
    "역": 9296,
    "연": 9297,
    "열": 9298,
    "염": 9299,
    "엽": 9300,
    "였": 9301,
    "영": 9302,
    "예": 9303,
    "옌": 9304,
    "오": 9305,
    "옥": 9306,
    "온": 9307,
    "올": 9308,
    "옮": 9309,
    "옴": 9310,
    "옵": 9311,
    "와": 9312,
    "완": 9313,
    "왔": 9314,
    "왜": 9315,
    "외": 9316,
    "왼": 9317,
    "요": 9318,
    "욕": 9319,
    "욜": 9320,
    "용": 9321,
    "우": 9322,
    "운": 9323,
    "울": 9324,
    "움": 9325,
    "웃": 9326,
    "워": 9327,
    "원": 9328,
    "월": 9329,
    "웨": 9330,
    "웹": 9331,
    "위": 9332,
    "윅": 9333,
    "윈": 9334,
    "유": 9335,
    "육": 9336,
    "윤": 9337,
    "율": 9338,
    "융": 9339,
    "으": 9340,
    "은": 9341,
    "을": 9342,
    "음": 9343,
    "응": 9344,
    "의": 9345,
    "이": 9346,
    "익": 9347,
    "인": 9348,
    "일": 9349,
    "읽": 9350,
    "임": 9351,
    "입": 9352,
    "잇": 9353,
    "있": 9354,
    "잉": 9355,
    "자": 9356,
    "작": 9357,
    "잔": 9358,
    "잘": 9359,
    "잠": 9360,
    "잡": 9361,
    "장": 9362,
    "재": 9363,
    "잭": 9364,
    "쟁": 9365,
    "쟈": 9366,
    "저": 9367,
    "적": 9368,
    "전": 9369,
    "절": 9370,
    "점": 9371,
    "접": 9372,
    "정": 9373,
    "젖": 9374,
    "제": 9375,
    "젝": 9376,
    "젠": 9377,
    "젤": 9378,
    "젯": 9379,
    "져": 9380,
    "젼": 9381,
    "졌": 9382,
    "조": 9383,
    "족": 9384,
    "존": 9385,
    "졸": 9386,
    "좀": 9387,
    "좁": 9388,
    "종": 9389,
    "좋": 9390,
    "좌": 9391,
    "죄": 9392,
    "주": 9393,
    "죽": 9394,
    "준": 9395,
    "줄": 9396,
    "줌": 9397,
    "줍": 9398,
    "중": 9399,
    "줘": 9400,
    "쥐": 9401,
    "즈": 9402,
    "즉": 9403,
    "즌": 9404,
    "즘": 9405,
    "증": 9406,
    "지": 9407,
    "직": 9408,
    "진": 9409,
    "질": 9410,
    "짐": 9411,
    "집": 9412,
    "짓": 9413,
    "징": 9414,
    "짜": 9415,
    "짠": 9416,
    "짤": 9417,
    "짧": 9418,
    "짬": 9419,
    "짱": 9420,
    "째": 9421,
    "쪼": 9422,
    "쪽": 9423,
    "쭉": 9424,
    "쯤": 9425,
    "찌": 9426,
    "찍": 9427,
    "찜": 9428,
    "차": 9429,
    "착": 9430,
    "찬": 9431,
    "찮": 9432,
    "찰": 9433,
    "참": 9434,
    "창": 9435,
    "찾": 9436,
    "채": 9437,
    "책": 9438,
    "챌": 9439,
    "챔": 9440,
    "챗": 9441,
    "챙": 9442,
    "처": 9443,
    "천": 9444,
    "철": 9445,
    "첨": 9446,
    "첫": 9447,
    "청": 9448,
    "체": 9449,
    "첼": 9450,
    "쳐": 9451,
    "초": 9452,
    "촌": 9453,
    "촘": 9454,
    "총": 9455,
    "최": 9456,
    "추": 9457,
    "축": 9458,
    "춘": 9459,
    "출": 9460,
    "춥": 9461,
    "충": 9462,
    "춰": 9463,
    "취": 9464,
    "츄": 9465,
    "츠": 9466,
    "측": 9467,
    "층": 9468,
    "치": 9469,
    "칙": 9470,
    "친": 9471,
    "칠": 9472,
    "침": 9473,
    "칭": 9474,
    "카": 9475,
    "칸": 9476,
    "칼": 9477,
    "캄": 9478,
    "캅": 9479,
    "캐": 9480,
    "캔": 9481,
    "캠": 9482,
    "캡": 9483,
    "캣": 9484,
    "커": 9485,
    "컨": 9486,
    "컬": 9487,
    "컴": 9488,
    "컵": 9489,
    "케": 9490,
    "켓": 9491,
    "켜": 9492,
    "코": 9493,
    "콘": 9494,
    "콜": 9495,
    "콤": 9496,
    "쿠": 9497,
    "쿨": 9498,
    "쿼": 9499,
    "퀀": 9500,
    "퀘": 9501,
    "퀴": 9502,
    "퀵": 9503,
    "퀸": 9504,
    "큐": 9505,
    "크": 9506,
    "큰": 9507,
    "클": 9508,
    "큼": 9509,
    "키": 9510,
    "킨": 9511,
    "킬": 9512,
    "킴": 9513,
    "킵": 9514,
    "킷": 9515,
    "킹": 9516,
    "타": 9517,
    "탁": 9518,
    "탄": 9519,
    "탈": 9520,
    "탐": 9521,
    "탑": 9522,
    "탕": 9523,
    "태": 9524,
    "택": 9525,
    "탬": 9526,
    "탭": 9527,
    "탱": 9528,
    "터": 9529,
    "턴": 9530,
    "털": 9531,
    "텀": 9532,
    "테": 9533,
    "텍": 9534,
    "텐": 9535,
    "텔": 9536,
    "템": 9537,
    "텝": 9538,
    "토": 9539,
    "톡": 9540,
    "톤": 9541,
    "톱": 9542,
    "통": 9543,
    "퇴": 9544,
    "투": 9545,
    "툰": 9546,
    "툴": 9547,
    "튀": 9548,
    "튜": 9549,
    "트": 9550,
    "특": 9551,
    "튼": 9552,
    "틀": 9553,
    "티": 9554,
    "틴": 9555,
    "틸": 9556,
    "팀": 9557,
    "팅": 9558,
    "파": 9559,
    "판": 9560,
    "팔": 9561,
    "팠": 9562,
    "패": 9563,
    "팩": 9564,
    "팬": 9565,
    "퍼": 9566,
    "펀": 9567,
    "펌": 9568,
    "펑": 9569,
    "페": 9570,
    "펙": 9571,
    "편": 9572,
    "평": 9573,
    "포": 9574,
    "폭": 9575,
    "폰": 9576,
    "폴": 9577,
    "폼": 9578,
    "표": 9579,
    "푸": 9580,
    "푼": 9581,
    "풀": 9582,
    "품": 9583,
    "풋": 9584,
    "퓨": 9585,
    "프": 9586,
    "픈": 9587,
    "플": 9588,
    "피": 9589,
    "픽": 9590,
    "핀": 9591,
    "필": 9592,
    "핏": 9593,
    "핑": 9594,
    "핔": 9595,
    "하": 9596,
    "학": 9597,
    "한": 9598,
    "할": 9599,
    "함": 9600,
    "합": 9601,
    "핫": 9602,
    "항": 9603,
    "해": 9604,
    "핵": 9605,
    "핸": 9606,
    "햄": 9607,
    "했": 9608,
    "행": 9609,
    "향": 9610,
    "허": 9611,
    "헉": 9612,
    "헌": 9613,
    "험": 9614,
    "헛": 9615,
    "헝": 9616,
    "헤": 9617,
    "헬": 9618,
    "혀": 9619,
    "현": 9620,
    "협": 9621,
    "혔": 9622,
    "형": 9623,
    "혜": 9624,
    "호": 9625,
    "혹": 9626,
    "혼": 9627,
    "홍": 9628,
    "화": 9629,
    "확": 9630,
    "환": 9631,
    "활": 9632,
    "홤": 9633,
    "황": 9634,
    "회": 9635,
    "획": 9636,
    "횟": 9637,
    "횡": 9638,
    "효": 9639,
    "후": 9640,
    "훈": 9641,
    "훨": 9642,
    "휘": 9643,
    "휩": 9644,
    "휴": 9645,
    "흐": 9646,
    "흑": 9647,
    "흥": 9648,
    "희": 9649,
    "히": 9650,
    "힌": 9651,
    "힘": 9652,
    "힣": 9653,
    "": 9654,
    "": 9655,
    "": 9656,
    "": 9657,
    "": 9658,
    "": 9659,
    "": 9660,
    "": 9661,
    "": 9662,
    "": 9663,
    "": 9664,
    "": 9665,
    "": 9666,
    "": 9667,
    "": 9668,
    "": 9669,
    "": 9670,
    "": 9671,
    "": 9672,
    "": 9673,
    "": 9674,
    "": 9675,
    "": 9676,
    "": 9677,
    "": 9678,
    "": 9679,
    "": 9680,
    "": 9681,
    "": 9682,
    "": 9683,
    "": 9684,
    "": 9685,
    "": 9686,
    "": 9687,
    "": 9688,
    "": 9689,
    "": 9690,
    "": 9691,
    "": 9692,
    "": 9693,
    "": 9694,
    "": 9695,
    "": 9696,
    "": 9697,
    "": 9698,
    "": 9699,
    "": 9700,
    "": 9701,
    "": 9702,
    "": 9703,
    "": 9704,
    "": 9705,
    "": 9706,
    "": 9707,
    "": 9708,
    "": 9709,
    "": 9710,
    "": 9711,
    "": 9712,
    "": 9713,
    "": 9714,
    "": 9715,
    "": 9716,
    "": 9717,
    "": 9718,
    "": 9719,
    "": 9720,
    "": 9721,
    "": 9722,
    "": 9723,
    "": 9724,
    "": 9725,
    "": 9726,
    "": 9727,
    "": 9728,
    "": 9729,
    "": 9730,
    "": 9731,
    "": 9732,
    "": 9733,
    "": 9734,
    "": 9735,
    "": 9736,
    "": 9737,
    "": 9738,
    "": 9739,
    "": 9740,
    "": 9741,
    "": 9742,
    "": 9743,
    "": 9744,
    "": 9745,
    "": 9746,
    "": 9747,
    "": 9748,
    "": 9749,
    "": 9750,
    "": 9751,
    "": 9752,
    "": 9753,
    "": 9754,
    "": 9755,
    "": 9756,
    "": 9757,
    "": 9758,
    "": 9759,
    "": 9760,
    "": 9761,
    "": 9762,
    "": 9763,
    "": 9764,
    "": 9765,
    "": 9766,
    "": 9767,
    "": 9768,
    "": 9769,
    "": 9770,
    "": 9771,
    "": 9772,
    "": 9773,
    "": 9774,
    "": 9775,
    "": 9776,
    "": 9777,
    "": 9778,
    "": 9779,
    "": 9780,
    "": 9781,
    "": 9782,
    "": 9783,
    "": 9784,
    "": 9785,
    "": 9786,
    "": 9787,
    "": 9788,
    "": 9789,
    "": 9790,
    "": 9791,
    "": 9792,
    "": 9793,
    "": 9794,
    "": 9795,
    "": 9796,
    "": 9797,
    "": 9798,
    "": 9799,
    "": 9800,
    "": 9801,
    "": 9802,
    "": 9803,
    "": 9804,
    "": 9805,
    "": 9806,
    "": 9807,
    "": 9808,
    "": 9809,
    "": 9810,
    "": 9811,
    "": 9812,
    "": 9813,
    "": 9814,
    "": 9815,
    "": 9816,
    "": 9817,
    "": 9818,
    "": 9819,
    "": 9820,
    "": 9821,
    "": 9822,
    "": 9823,
    "": 9824,
    "": 9825,
    "": 9826,
    "": 9827,
    "": 9828,
    "": 9829,
    "": 9830,
    "": 9831,
    "": 9832,
    "": 9833,
    "": 9834,
    "": 9835,
    "": 9836,
    "": 9837,
    "": 9838,
    "": 9839,
    "": 9840,
    "": 9841,
    "": 9842,
    "": 9843,
    "": 9844,
    "": 9845,
    "": 9846,
    "": 9847,
    "": 9848,
    "": 9849,
    "": 9850,
    "": 9851,
    "": 9852,
    "": 9853,
    "": 9854,
    "": 9855,
    "": 9856,
    "": 9857,
    "": 9858,
    "": 9859,
    "": 9860,
    "": 9861,
    "": 9862,
    "": 9863,
    "": 9864,
    "": 9865,
    "": 9866,
    "": 9867,
    "": 9868,
    "": 9869,
    "": 9870,
    "": 9871,
    "": 9872,
    "": 9873,
    "": 9874,
    "": 9875,
    "": 9876,
    "": 9877,
    "": 9878,
    "": 9879,
    "": 9880,
    "": 9881,
    "": 9882,
    "": 9883,
    "": 9884,
    "": 9885,
    "": 9886,
    "": 9887,
    "": 9888,
    "": 9889,
    "": 9890,
    "": 9891,
    "": 9892,
    "": 9893,
    "": 9894,
    "": 9895,
    "": 9896,
    "": 9897,
    "": 9898,
    "": 9899,
    "": 9900,
    "": 9901,
    "": 9902,
    "": 9903,
    "": 9904,
    "": 9905,
    "": 9906,
    "": 9907,
    "": 9908,
    "": 9909,
    "": 9910,
    "": 9911,
    "": 9912,
    "": 9913,
    "": 9914,
    "": 9915,
    "": 9916,
    "": 9917,
    "": 9918,
    "": 9919,
    "": 9920,
    "": 9921,
    "": 9922,
    "": 9923,
    "": 9924,
    "": 9925,
    "": 9926,
    "": 9927,
    "": 9928,
    "": 9929,
    "": 9930,
    "": 9931,
    "": 9932,
    "": 9933,
    "": 9934,
    "": 9935,
    "": 9936,
    "": 9937,
    "": 9938,
    "": 9939,
    "": 9940,
    "": 9941,
    "": 9942,
    "": 9943,
    "": 9944,
    "": 9945,
    "": 9946,
    "": 9947,
    "": 9948,
    "": 9949,
    "": 9950,
    "": 9951,
    "": 9952,
    "": 9953,
    "": 9954,
    "": 9955,
    "": 9956,
    "": 9957,
    "": 9958,
    "": 9959,
    "": 9960,
    "": 9961,
    "": 9962,
    "": 9963,
    "": 9964,
    "": 9965,
    "": 9966,
    "": 9967,
    "": 9968,
    "": 9969,
    "": 9970,
    "": 9971,
    "": 9972,
    "": 9973,
    "": 9974,
    "": 9975,
    "": 9976,
    "": 9977,
    "": 9978,
    "": 9979,
    "": 9980,
    "": 9981,
    "": 9982,
    "": 9983,
    "": 9984,
    "": 9985,
    "": 9986,
    "": 9987,
    "": 9988,
    "": 9989,
    "": 9990,
    "": 9991,
    "": 9992,
    "": 9993,
    "": 9994,
    "": 9995,
    "": 9996,
    "": 9997,
    "": 9998,
    "": 9999,
    "": 10000,
    "": 10001,
    "": 10002,
    "": 10003,
    "": 10004,
    "": 10005,
    "": 10006,
    "": 10007,
    "": 10008,
    "": 10009,
    "": 10010,
    "": 10011,
    "": 10012,
    "": 10013,
    "": 10014,
    "": 10015,
    "": 10016,
    "": 10017,
    "": 10018,
    "": 10019,
    "": 10020,
    "": 10021,
    "": 10022,
    "": 10023,
    "": 10024,
    "": 10025,
    "": 10026,
    "": 10027,
    "": 10028,
    "": 10029,
    "": 10030,
    "": 10031,
    "": 10032,
    "": 10033,
    "": 10034,
    "": 10035,
    "": 10036,
    "": 10037,
    "": 10038,
    "": 10039,
    "": 10040,
    "": 10041,
    "": 10042,
    "": 10043,
    "": 10044,
    "": 10045,
    "": 10046,
    "": 10047,
    "": 10048,
    "": 10049,
    "": 10050,
    "": 10051,
    "": 10052,
    "": 10053,
    "": 10054,
    "": 10055,
    "": 10056,
    "": 10057,
    "": 10058,
    "": 10059,
    "": 10060,
    "": 10061,
    "": 10062,
    "": 10063,
    "": 10064,
    "": 10065,
    "": 10066,
    "": 10067,
    "": 10068,
    "": 10069,
    "": 10070,
    "": 10071,
    "": 10072,
    "": 10073,
    "": 10074,
    "": 10075,
    "": 10076,
    "": 10077,
    "": 10078,
    "": 10079,
    "": 10080,
    "": 10081,
    "": 10082,
    "": 10083,
    "": 10084,
    "": 10085,
    "": 10086,
    "": 10087,
    "": 10088,
    "": 10089,
    "": 10090,
    "": 10091,
    "": 10092,
    "": 10093,
    "": 10094,
    "": 10095,
    "": 10096,
    "": 10097,
    "": 10098,
    "": 10099,
    "": 10100,
    "": 10101,
    "": 10102,
    "": 10103,
    "": 10104,
    "": 10105,
    "": 10106,
    "": 10107,
    "": 10108,
    "": 10109,
    "": 10110,
    "": 10111,
    "": 10112,
    "": 10113,
    "": 10114,
    "": 10115,
    "": 10116,
    "": 10117,
    "": 10118,
    "": 10119,
    "": 10120,
    "": 10121,
    "": 10122,
    "": 10123,
    "": 10124,
    "": 10125,
    "": 10126,
    "": 10127,
    "": 10128,
    "": 10129,
    "": 10130,
    "": 10131,
    "": 10132,
    "": 10133,
    "": 10134,
    "": 10135,
    "": 10136,
    "": 10137,
    "": 10138,
    "": 10139,
    "": 10140,
    "": 10141,
    "": 10142,
    "": 10143,
    "": 10144,
    "": 10145,
    "": 10146,
    "": 10147,
    "": 10148,
    "": 10149,
    "": 10150,
    "": 10151,
    "": 10152,
    "": 10153,
    "": 10154,
    "": 10155,
    "": 10156,
    "": 10157,
    "": 10158,
    "": 10159,
    "": 10160,
    "": 10161,
    "": 10162,
    "": 10163,
    "": 10164,
    "": 10165,
    "": 10166,
    "": 10167,
    "": 10168,
    "": 10169,
    "": 10170,
    "": 10171,
    "": 10172,
    "": 10173,
    "": 10174,
    "": 10175,
    "": 10176,
    "": 10177,
    "": 10178,
    "": 10179,
    "": 10180,
    "": 10181,
    "": 10182,
    "": 10183,
    "": 10184,
    "": 10185,
    "": 10186,
    "": 10187,
    "": 10188,
    "": 10189,
    "": 10190,
    "": 10191,
    "": 10192,
    "": 10193,
    "": 10194,
    "": 10195,
    "": 10196,
    "": 10197,
    "": 10198,
    "": 10199,
    "": 10200,
    "": 10201,
    "": 10202,
    "": 10203,
    "": 10204,
    "": 10205,
    "": 10206,
    "": 10207,
    "論": 10208,
    "異": 10209,
    "不": 10210,
    "數": 10211,
    "ﬀ": 10212,
    "ﬁ": 10213,
    "ﬂ": 10214,
    "ﬃ": 10215,
    "ﬤ": 10216,
    "ﬨ": 10217,
    "ﭘ": 10218,
    "ﭤ": 10219,
    "ﮐ": 10220,
    "ﮔ": 10221,
    "﮳": 10222,
    "﮻": 10223,
    "ﯽ": 10224,
    "ﯾ": 10225,
    "ﯿ": 10226,
    "ﰲ": 10227,
    "ﲤ": 10228,
    "ﳌ": 10229,
    "ﳝ": 10230,
    "ﴰ": 10231,
    "﴾": 10232,
    "﴿": 10233,
    "﷐": 10234,
    "﷮": 10235,
    "﷯": 10236,
    "ﷺ": 10237,
    "﷽": 10238,
    "︎": 10239,
    "️": 10240,
    "︰": 10241,
    "︵": 10242,
    "︶": 10243,
    "︷": 10244,
    "︸": 10245,
    "︽": 10246,
    "︿": 10247,
    "﹅": 10248,
    "﹍": 10249,
    "﹏": 10250,
    "﹒": 10251,
    "﹚": 10252,
    "﹣": 10253,
    "﹪": 10254,
    "ﺀ": 10255,
    "ﺃ": 10256,
    "ﺇ": 10257,
    "ﺈ": 10258,
    "ﺍ": 10259,
    "ﺎ": 10260,
    "ﺏ": 10261,
    "ﺐ": 10262,
    "ﺑ": 10263,
    "ﺒ": 10264,
    "ﺓ": 10265,
    "ﺔ": 10266,
    "ﺕ": 10267,
    "ﺖ": 10268,
    "ﺗ": 10269,
    "ﺘ": 10270,
    "ﺚ": 10271,
    "ﺜ": 10272,
    "ﺞ": 10273,
    "ﺟ": 10274,
    "ﺠ": 10275,
    "ﺣ": 10276,
    "ﺤ": 10277,
    "ﺧ": 10278,
    "ﺩ": 10279,
    "ﺪ": 10280,
    "ﺫ": 10281,
    "ﺬ": 10282,
    "ﺭ": 10283,
    "ﺮ": 10284,
    "ﺯ": 10285,
    "ﺰ": 10286,
    "ﺱ": 10287,
    "ﺲ": 10288,
    "ﺳ": 10289,
    "ﺴ": 10290,
    "ﺷ": 10291,
    "ﺸ": 10292,
    "ﺻ": 10293,
    "ﺼ": 10294,
    "ﺿ": 10295,
    "ﻀ": 10296,
    "ﻁ": 10297,
    "ﻂ": 10298,
    "ﻃ": 10299,
    "ﻄ": 10300,
    "ﻈ": 10301,
    "ﻉ": 10302,
    "ﻊ": 10303,
    "ﻋ": 10304,
    "ﻌ": 10305,
    "ﻐ": 10306,
    "ﻓ": 10307,
    "ﻔ": 10308,
    "ﻕ": 10309,
    "ﻖ": 10310,
    "ﻗ": 10311,
    "ﻘ": 10312,
    "ﻚ": 10313,
    "ﻜ": 10314,
    "ﻝ": 10315,
    "ﻞ": 10316,
    "ﻟ": 10317,
    "ﻠ": 10318,
    "ﻡ": 10319,
    "ﻢ": 10320,
    "ﻣ": 10321,
    "ﻤ": 10322,
    "ﻥ": 10323,
    "ﻦ": 10324,
    "ﻧ": 10325,
    "ﻨ": 10326,
    "ﻩ": 10327,
    "ﻪ": 10328,
    "ﻫ": 10329,
    "ﻬ": 10330,
    "ﻭ": 10331,
    "ﻮ": 10332,
    "ﻯ": 10333,
    "ﻰ": 10334,
    "ﻱ": 10335,
    "ﻲ": 10336,
    "ﻳ": 10337,
    "ﻴ": 10338,
    "ﻷ": 10339,
    "ﻻ": 10340,
    "ﻼ": 10341,
    "﻿": 10342,
    "！": 10343,
    "＂": 10344,
    "＃": 10345,
    "＄": 10346,
    "％": 10347,
    "＆": 10348,
    "＇": 10349,
    "（": 10350,
    "）": 10351,
    "＊": 10352,
    "＋": 10353,
    "，": 10354,
    "－": 10355,
    "．": 10356,
    "／": 10357,
    "０": 10358,
    "１": 10359,
    "２": 10360,
    "３": 10361,
    "４": 10362,
    "５": 10363,
    "６": 10364,
    "７": 10365,
    "８": 10366,
    "９": 10367,
    "：": 10368,
    "；": 10369,
    "＜": 10370,
    "＝": 10371,
    "＞": 10372,
    "？": 10373,
    "＠": 10374,
    "Ａ": 10375,
    "Ｂ": 10376,
    "Ｃ": 10377,
    "Ｄ": 10378,
    "Ｅ": 10379,
    "Ｆ": 10380,
    "Ｇ": 10381,
    "Ｈ": 10382,
    "Ｉ": 10383,
    "Ｊ": 10384,
    "Ｋ": 10385,
    "Ｌ": 10386,
    "Ｍ": 10387,
    "Ｎ": 10388,
    "Ｏ": 10389,
    "Ｐ": 10390,
    "Ｑ": 10391,
    "Ｒ": 10392,
    "Ｓ": 10393,
    "Ｔ": 10394,
    "Ｕ": 10395,
    "Ｖ": 10396,
    "Ｗ": 10397,
    "Ｘ": 10398,
    "Ｙ": 10399,
    "Ｚ": 10400,
    "［": 10401,
    "＼": 10402,
    "］": 10403,
    "＾": 10404,
    "＿": 10405,
    "｀": 10406,
    "ａ": 10407,
    "ｂ": 10408,
    "ｃ": 10409,
    "ｄ": 10410,
    "ｅ": 10411,
    "ｆ": 10412,
    "ｇ": 10413,
    "ｈ": 10414,
    "ｉ": 10415,
    "ｊ": 10416,
    "ｋ": 10417,
    "ｌ": 10418,
    "ｍ": 10419,
    "ｎ": 10420,
    "ｏ": 10421,
    "ｐ": 10422,
    "ｑ": 10423,
    "ｒ": 10424,
    "ｓ": 10425,
    "ｔ": 10426,
    "ｕ": 10427,
    "ｖ": 10428,
    "ｗ": 10429,
    "ｘ": 10430,
    "ｙ": 10431,
    "ｚ": 10432,
    "｛": 10433,
    "｜": 10434,
    "｝": 10435,
    "～": 10436,
    "｟": 10437,
    "｠": 10438,
    "｡": 10439,
    "｢": 10440,
    "｣": 10441,
    "､": 10442,
    "･": 10443,
    "ｦ": 10444,
    "ｧ": 10445,
    "ｨ": 10446,
    "ｪ": 10447,
    "ｮ": 10448,
    "ｯ": 10449,
    "ｰ": 10450,
    "ｱ": 10451,
    "ｲ": 10452,
    "ｳ": 10453,
    "ｴ": 10454,
    "ｶ": 10455,
    "ｷ": 10456,
    "ｸ": 10457,
    "ｹ": 10458,
    "ｺ": 10459,
    "ｼ": 10460,
    "ｽ": 10461,
    "ｾ": 10462,
    "ｿ": 10463,
    "ﾀ": 10464,
    "ﾁ": 10465,
    "ﾂ": 10466,
    "ﾃ": 10467,
    "ﾄ": 10468,
    "ﾅ": 10469,
    "ﾆ": 10470,
    "ﾉ": 10471,
    "ﾊ": 10472,
    "ﾋ": 10473,
    "ﾌ": 10474,
    "ﾐ": 10475,
    "ﾑ": 10476,
    "ﾒ": 10477,
    "ﾓ": 10478,
    "ﾔ": 10479,
    "ﾗ": 10480,
    "ﾙ": 10481,
    "ﾚ": 10482,
    "ﾛ": 10483,
    "ﾜ": 10484,
    "ﾝ": 10485,
    "ﾞ": 10486,
    "ﾟ": 10487,
    "ﾠ": 10488,
    "￡": 10489,
    "￣": 10490,
    "￥": 10491,
    "￨": 10492,
    "￭": 10493,
    "￮": 10494,
    "￼": 10495,
    "�": 10496,
    "￿": 10497,
    "𐀀": 10498,
    "𐊠": 10499,
    "𐊡": 10500,
    "𐊢": 10501,
    "𐊣": 10502,
    "𐊤": 10503,
    "𐊥": 10504,
    "𐊦": 10505,
    "𐊧": 10506,
    "𐊨": 10507,
    "𐊩": 10508,
    "𐊪": 10509,
    "𐊫": 10510,
    "𐊬": 10511,
    "𐊭": 10512,
    "𐊮": 10513,
    "𐊯": 10514,
    "𐊰": 10515,
    "𐊱": 10516,
    "𐊲": 10517,
    "𐊳": 10518,
    "𐊴": 10519,
    "𐊵": 10520,
    "𐊶": 10521,
    "𐊷": 10522,
    "𐊸": 10523,
    "𐊹": 10524,
    "𐊺": 10525,
    "𐊻": 10526,
    "𐊼": 10527,
    "𐊽": 10528,
    "𐊾": 10529,
    "𐊿": 10530,
    "𐋀": 10531,
    "𐋁": 10532,
    "𐋂": 10533,
    "𐋃": 10534,
    "𐋄": 10535,
    "𐋅": 10536,
    "𐋆": 10537,
    "𐋇": 10538,
    "𐋈": 10539,
    "𐋉": 10540,
    "𐋊": 10541,
    "𐋋": 10542,
    "𐋌": 10543,
    "𐋍": 10544,
    "𐋎": 10545,
    "𐋏": 10546,
    "𐋐": 10547,
    "𐌉": 10548,
    "𐤃": 10549,
    "𐩑": 10550,
    "𑣃": 10551,
    "𒀭": 10552,
    "𒆷": 10553,
    "𒇷": 10554,
    "𒉺": 10555,
    "𒌌": 10556,
    "𓆩": 10557,
    "𓆪": 10558,
    "𓍤": 10559,
    "𓎆": 10560,
    "𓏺": 10561,
    "𕔴": 10562,
    "𖤍": 10563,
    "𝄞": 10564,
    "𝐀": 10565,
    "𝐁": 10566,
    "𝐂": 10567,
    "𝐃": 10568,
    "𝐄": 10569,
    "𝐅": 10570,
    "𝐆": 10571,
    "𝐇": 10572,
    "𝐈": 10573,
    "𝐉": 10574,
    "𝐊": 10575,
    "𝐋": 10576,
    "𝐌": 10577,
    "𝐍": 10578,
    "𝐎": 10579,
    "𝐏": 10580,
    "𝐑": 10581,
    "𝐒": 10582,
    "𝐓": 10583,
    "𝐔": 10584,
    "𝐕": 10585,
    "𝐖": 10586,
    "𝐙": 10587,
    "𝐚": 10588,
    "𝐛": 10589,
    "𝐜": 10590,
    "𝐝": 10591,
    "𝐞": 10592,
    "𝐟": 10593,
    "𝐠": 10594,
    "𝐡": 10595,
    "𝐢": 10596,
    "𝐣": 10597,
    "𝐤": 10598,
    "𝐥": 10599,
    "𝐦": 10600,
    "𝐧": 10601,
    "𝐨": 10602,
    "𝐩": 10603,
    "𝐪": 10604,
    "𝐫": 10605,
    "𝐬": 10606,
    "𝐭": 10607,
    "𝐮": 10608,
    "𝐯": 10609,
    "𝐰": 10610,
    "𝐱": 10611,
    "𝐲": 10612,
    "𝐳": 10613,
    "𝐴": 10614,
    "𝐵": 10615,
    "𝐶": 10616,
    "𝐷": 10617,
    "𝐸": 10618,
    "𝐹": 10619,
    "𝐺": 10620,
    "𝐻": 10621,
    "𝐼": 10622,
    "𝐽": 10623,
    "𝐾": 10624,
    "𝐿": 10625,
    "𝑀": 10626,
    "𝑁": 10627,
    "𝑂": 10628,
    "𝑃": 10629,
    "𝑄": 10630,
    "𝑅": 10631,
    "𝑆": 10632,
    "𝑇": 10633,
    "𝑈": 10634,
    "𝑉": 10635,
    "𝑊": 10636,
    "𝑋": 10637,
    "𝑌": 10638,
    "𝑍": 10639,
    "𝑎": 10640,
    "𝑏": 10641,
    "𝑐": 10642,
    "𝑑": 10643,
    "𝑒": 10644,
    "𝑓": 10645,
    "𝑔": 10646,
    "𝑕": 10647,
    "𝑖": 10648,
    "𝑗": 10649,
    "𝑘": 10650,
    "𝑙": 10651,
    "𝑚": 10652,
    "𝑛": 10653,
    "𝑜": 10654,
    "𝑝": 10655,
    "𝑞": 10656,
    "𝑟": 10657,
    "𝑠": 10658,
    "𝑡": 10659,
    "𝑢": 10660,
    "𝑣": 10661,
    "𝑤": 10662,
    "𝑥": 10663,
    "𝑦": 10664,
    "𝑧": 10665,
    "𝑨": 10666,
    "𝑩": 10667,
    "𝑪": 10668,
    "𝑫": 10669,
    "𝑬": 10670,
    "𝑭": 10671,
    "𝑮": 10672,
    "𝑯": 10673,
    "𝑰": 10674,
    "𝑱": 10675,
    "𝑳": 10676,
    "𝑴": 10677,
    "𝑵": 10678,
    "𝑷": 10679,
    "𝑸": 10680,
    "𝑹": 10681,
    "𝑺": 10682,
    "𝑻": 10683,
    "𝑽": 10684,
    "𝑾": 10685,
    "𝑿": 10686,
    "𝒁": 10687,
    "𝒂": 10688,
    "𝒃": 10689,
    "𝒄": 10690,
    "𝒅": 10691,
    "𝒆": 10692,
    "𝒇": 10693,
    "𝒈": 10694,
    "𝒉": 10695,
    "𝒊": 10696,
    "𝒋": 10697,
    "𝒌": 10698,
    "𝒍": 10699,
    "𝒎": 10700,
    "𝒏": 10701,
    "𝒐": 10702,
    "𝒑": 10703,
    "𝒒": 10704,
    "𝒓": 10705,
    "𝒔": 10706,
    "𝒕": 10707,
    "𝒖": 10708,
    "𝒗": 10709,
    "𝒘": 10710,
    "𝒙": 10711,
    "𝒚": 10712,
    "𝒛": 10713,
    "𝒞": 10714,
    "𝒪": 10715,
    "𝒫": 10716,
    "𝒶": 10717,
    "𝒽": 10718,
    "𝓃": 10719,
    "𝓈": 10720,
    "𝓍": 10721,
    "𝓎": 10722,
    "𝓔": 10723,
    "𝓕": 10724,
    "𝓝": 10725,
    "𝓟": 10726,
    "𝓪": 10727,
    "𝓮": 10728,
    "𝓯": 10729,
    "𝓱": 10730,
    "𝓲": 10731,
    "𝓵": 10732,
    "𝓻": 10733,
    "𝓼": 10734,
    "𝓽": 10735,
    "𝓿": 10736,
    "𝔁": 10737,
    "𝔐": 10738,
    "𝔗": 10739,
    "𝔜": 10740,
    "𝔞": 10741,
    "𝔢": 10742,
    "𝔤": 10743,
    "𝔫": 10744,
    "𝔰": 10745,
    "𝔲": 10746,
    "𝔳": 10747,
    "𝔸": 10748,
    "𝔻": 10749,
    "𝔼": 10750,
    "𝔽": 10751,
    "𝔾": 10752,
    "𝕀": 10753,
    "𝕂": 10754,
    "𝕃": 10755,
    "𝕄": 10756,
    "𝕆": 10757,
    "𝕊": 10758,
    "𝕋": 10759,
    "𝕌": 10760,
    "𝕍": 10761,
    "𝕎": 10762,
    "𝕏": 10763,
    "𝕙": 10764,
    "𝕚": 10765,
    "𝕜": 10766,
    "𝕟": 10767,
    "𝕩": 10768,
    "𝕿": 10769,
    "𝖆": 10770,
    "𝖊": 10771,
    "𝖕": 10772,
    "𝖖": 10773,
    "𝖗": 10774,
    "𝖘": 10775,
    "𝖝": 10776,
    "𝖳": 10777,
    "𝖴": 10778,
    "𝖾": 10779,
    "𝗇": 10780,
    "𝗌": 10781,
    "𝗑": 10782,
    "𝗔": 10783,
    "𝗗": 10784,
    "𝗘": 10785,
    "𝗙": 10786,
    "𝗜": 10787,
    "𝗟": 10788,
    "𝗠": 10789,
    "𝗡": 10790,
    "𝗣": 10791,
    "𝗥": 10792,
    "𝗦": 10793,
    "𝗧": 10794,
    "𝗪": 10795,
    "𝗮": 10796,
    "𝗯": 10797,
    "𝗰": 10798,
    "𝗱": 10799,
    "𝗲": 10800,
    "𝗳": 10801,
    "𝗴": 10802,
    "𝗵": 10803,
    "𝗶": 10804,
    "𝗸": 10805,
    "𝗹": 10806,
    "𝗺": 10807,
    "𝗻": 10808,
    "𝗼": 10809,
    "𝗽": 10810,
    "𝗾": 10811,
    "𝗿": 10812,
    "𝘀": 10813,
    "𝘁": 10814,
    "𝘂": 10815,
    "𝘃": 10816,
    "𝘄": 10817,
    "𝘅": 10818,
    "𝘆": 10819,
    "𝘑": 10820,
    "𝘗": 10821,
    "𝘚": 10822,
    "𝘛": 10823,
    "𝘢": 10824,
    "𝘣": 10825,
    "𝘤": 10826,
    "𝘥": 10827,
    "𝘦": 10828,
    "𝘨": 10829,
    "𝘩": 10830,
    "𝘪": 10831,
    "𝘭": 10832,
    "𝘮": 10833,
    "𝘯": 10834,
    "𝘰": 10835,
    "𝘱": 10836,
    "𝘲": 10837,
    "𝘳": 10838,
    "𝘴": 10839,
    "𝘵": 10840,
    "𝘶": 10841,
    "𝘷": 10842,
    "𝘹": 10843,
    "𝘺": 10844,
    "𝘼": 10845,
    "𝘾": 10846,
    "𝙁": 10847,
    "𝙏": 10848,
    "𝙐": 10849,
    "𝙖": 10850,
    "𝙘": 10851,
    "𝙙": 10852,
    "𝙚": 10853,
    "𝙛": 10854,
    "𝙜": 10855,
    "𝙞": 10856,
    "𝙠": 10857,
    "𝙡": 10858,
    "𝙢": 10859,
    "𝙣": 10860,
    "𝙤": 10861,
    "𝙥": 10862,
    "𝙧": 10863,
    "𝙨": 10864,
    "𝙩": 10865,
    "𝙪": 10866,
    "𝙫": 10867,
    "𝙮": 10868,
    "𝙰": 10869,
    "𝙲": 10870,
    "𝙳": 10871,
    "𝙴": 10872,
    "𝙵": 10873,
    "𝙶": 10874,
    "𝙷": 10875,
    "𝙸": 10876,
    "𝙺": 10877,
    "𝙻": 10878,
    "𝙼": 10879,
    "𝙽": 10880,
    "𝙾": 10881,
    "𝙿": 10882,
    "𝚀": 10883,
    "𝚁": 10884,
    "𝚂": 10885,
    "𝚃": 10886,
    "𝚄": 10887,
    "𝚈": 10888,
    "𝚊": 10889,
    "𝚍": 10890,
    "𝚎": 10891,
    "𝚑": 10892,
    "𝚕": 10893,
    "𝚗": 10894,
    "𝚘": 10895,
    "𝚜": 10896,
    "𝚝": 10897,
    "𝚞": 10898,
    "𝚫": 10899,
    "𝚯": 10900,
    "𝛁": 10901,
    "𝛂": 10902,
    "𝛃": 10903,
    "𝛄": 10904,
    "𝛆": 10905,
    "𝛉": 10906,
    "𝛌": 10907,
    "𝛍": 10908,
    "𝛎": 10909,
    "𝛑": 10910,
    "𝛒": 10911,
    "𝛜": 10912,
    "𝛟": 10913,
    "𝛠": 10914,
    "𝛢": 10915,
    "𝛣": 10916,
    "𝛤": 10917,
    "𝛥": 10918,
    "𝛦": 10919,
    "𝛧": 10920,
    "𝛨": 10921,
    "𝛩": 10922,
    "𝛪": 10923,
    "𝛫": 10924,
    "𝛬": 10925,
    "𝛭": 10926,
    "𝛮": 10927,
    "𝛯": 10928,
    "𝛰": 10929,
    "𝛱": 10930,
    "𝛲": 10931,
    "𝛴": 10932,
    "𝛵": 10933,
    "𝛶": 10934,
    "𝛷": 10935,
    "𝛸": 10936,
    "𝛹": 10937,
    "𝛺": 10938,
    "𝛻": 10939,
    "𝛼": 10940,
    "𝛽": 10941,
    "𝛾": 10942,
    "𝛿": 10943,
    "𝜀": 10944,
    "𝜁": 10945,
    "𝜂": 10946,
    "𝜃": 10947,
    "𝜄": 10948,
    "𝜅": 10949,
    "𝜆": 10950,
    "𝜇": 10951,
    "𝜈": 10952,
    "𝜉": 10953,
    "𝜊": 10954,
    "𝜋": 10955,
    "𝜌": 10956,
    "𝜍": 10957,
    "𝜎": 10958,
    "𝜏": 10959,
    "𝜐": 10960,
    "𝜑": 10961,
    "𝜒": 10962,
    "𝜓": 10963,
    "𝜔": 10964,
    "𝜕": 10965,
    "𝜖": 10966,
    "𝜗": 10967,
    "𝜙": 10968,
    "𝜱": 10969,
    "𝜵": 10970,
    "𝜶": 10971,
    "𝜺": 10972,
    "𝜼": 10973,
    "𝜽": 10974,
    "𝜾": 10975,
    "𝝁": 10976,
    "𝝅": 10977,
    "𝝎": 10978,
    "𝝰": 10979,
    "𝝿": 10980,
    "𝞂": 10981,
    "𝞎": 10982,
    "𝞪": 10983,
    "𝞱": 10984,
    "𝞹": 10985,
    "𝟎": 10986,
    "𝟏": 10987,
    "𝟐": 10988,
    "𝟑": 10989,
    "𝟒": 10990,
    "𝟓": 10991,
    "𝟔": 10992,
    "𝟕": 10993,
    "𝟖": 10994,
    "𝟗": 10995,
    "𝟙": 10996,
    "𝟰": 10997,
    "𞸀": 10998,
    "🄯": 10999,
    "🅰": 11000,
    "🅱": 11001,
    "🅸": 11002,
    "🅾": 11003,
    "🅿": 11004,
    "🆈": 11005,
    "🆓": 11006,
    "🆔": 11007,
    "🆕": 11008,
    "🆖": 11009,
    "🆗": 11010,
    "🆘": 11011,
    "🆚": 11012,
    "🇦": 11013,
    "🇧": 11014,
    "🇨": 11015,
    "🇩": 11016,
    "🇪": 11017,
    "🇫": 11018,
    "🇬": 11019,
    "🇭": 11020,
    "🇮": 11021,
    "🇯": 11022,
    "🇰": 11023,
    "🇱": 11024,
    "🇲": 11025,
    "🇳": 11026,
    "🇴": 11027,
    "🇵": 11028,
    "🇶": 11029,
    "🇷": 11030,
    "🇸": 11031,
    "🇹": 11032,
    "🇺": 11033,
    "🇻": 11034,
    "🇼": 11035,
    "🇽": 11036,
    "🇾": 11037,
    "🇿": 11038,
    "🈸": 11039,
    "🈹": 11040,
    "🌀": 11041,
    "🌅": 11042,
    "🌈": 11043,
    "🌉": 11044,
    "🌊": 11045,
    "🌋": 11046,
    "🌌": 11047,
    "🌍": 11048,
    "🌎": 11049,
    "🌏": 11050,
    "🌐": 11051,
    "🌑": 11052,
    "🌒": 11053,
    "🌓": 11054,
    "🌔": 11055,
    "🌕": 11056,
    "🌖": 11057,
    "🌗": 11058,
    "🌘": 11059,
    "🌙": 11060,
    "🌝": 11061,
    "🌞": 11062,
    "🌟": 11063,
    "🌠": 11064,
    "🌡": 11065,
    "🌤": 11066,
    "🌥": 11067,
    "🌦": 11068,
    "🌧": 11069,
    "🌫": 11070,
    "🌬": 11071,
    "🌭": 11072,
    "🌮": 11073,
    "🌯": 11074,
    "🌰": 11075,
    "🌱": 11076,
    "🌲": 11077,
    "🌳": 11078,
    "🌴": 11079,
    "🌵": 11080,
    "🌶": 11081,
    "🌸": 11082,
    "🌹": 11083,
    "🌺": 11084,
    "🌻": 11085,
    "🌼": 11086,
    "🌾": 11087,
    "🌿": 11088,
    "🍀": 11089,
    "🍁": 11090,
    "🍂": 11091,
    "🍃": 11092,
    "🍄": 11093,
    "🍅": 11094,
    "🍆": 11095,
    "🍉": 11096,
    "🍊": 11097,
    "🍌": 11098,
    "🍎": 11099,
    "🍏": 11100,
    "🍐": 11101,
    "🍑": 11102,
    "🍓": 11103,
    "🍔": 11104,
    "🍕": 11105,
    "🍖": 11106,
    "🍗": 11107,
    "🍙": 11108,
    "🍞": 11109,
    "🍟": 11110,
    "🍧": 11111,
    "🍫": 11112,
    "🍭": 11113,
    "🍰": 11114,
    "🍲": 11115,
    "🍳": 11116,
    "🍴": 11117,
    "🍵": 11118,
    "🍷": 11119,
    "🍸": 11120,
    "🍹": 11121,
    "🍺": 11122,
    "🍼": 11123,
    "🍽": 11124,
    "🍾": 11125,
    "🍿": 11126,
    "🎀": 11127,
    "🎁": 11128,
    "🎂": 11129,
    "🎃": 11130,
    "🎄": 11131,
    "🎅": 11132,
    "🎆": 11133,
    "🎇": 11134,
    "🎈": 11135,
    "🎉": 11136,
    "🎋": 11137,
    "🎌": 11138,
    "🎏": 11139,
    "🎐": 11140,
    "🎒": 11141,
    "🎓": 11142,
    "🎖": 11143,
    "🎗": 11144,
    "🎙": 11145,
    "🎚": 11146,
    "🎛": 11147,
    "🎞": 11148,
    "🎟": 11149,
    "🎣": 11150,
    "🎤": 11151,
    "🎥": 11152,
    "🎧": 11153,
    "🎨": 11154,
    "🎫": 11155,
    "🎬": 11156,
    "🎭": 11157,
    "🎮": 11158,
    "🎯": 11159,
    "🎰": 11160,
    "🎲": 11161,
    "🎳": 11162,
    "🎵": 11163,
    "🎶": 11164,
    "🎹": 11165,
    "🎼": 11166,
    "🎾": 11167,
    "🏀": 11168,
    "🏁": 11169,
    "🏃": 11170,
    "🏄": 11171,
    "🏅": 11172,
    "🏆": 11173,
    "🏇": 11174,
    "🏈": 11175,
    "🏊": 11176,
    "🏋": 11177,
    "🏎": 11178,
    "🏔": 11179,
    "🏕": 11180,
    "🏖": 11181,
    "🏗": 11182,
    "🏘": 11183,
    "🏙": 11184,
    "🏚": 11185,
    "🏛": 11186,
    "🏜": 11187,
    "🏞": 11188,
    "🏠": 11189,
    "🏡": 11190,
    "🏢": 11191,
    "🏥": 11192,
    "🏦": 11193,
    "🏪": 11194,
    "🏫": 11195,
    "🏭": 11196,
    "🏮": 11197,
    "🏷": 11198,
    "🏺": 11199,
    "🏻": 11200,
    "🏼": 11201,
    "🏽": 11202,
    "🏾": 11203,
    "🏿": 11204,
    "🐀": 11205,
    "🐂": 11206,
    "🐅": 11207,
    "🐇": 11208,
    "🐈": 11209,
    "🐉": 11210,
    "🐊": 11211,
    "🐋": 11212,
    "🐌": 11213,
    "🐍": 11214,
    "🐎": 11215,
    "🐐": 11216,
    "🐔": 11217,
    "🐖": 11218,
    "🐙": 11219,
    "🐚": 11220,
    "🐛": 11221,
    "🐝": 11222,
    "🐞": 11223,
    "🐠": 11224,
    "🐢": 11225,
    "🐦": 11226,
    "🐮": 11227,
    "🐱": 11228,
    "🐳": 11229,
    "🐶": 11230,
    "🐸": 11231,
    "🐹": 11232,
    "🐻": 11233,
    "🐾": 11234,
    "👀": 11235,
    "👁": 11236,
    "👂": 11237,
    "👅": 11238,
    "👆": 11239,
    "👇": 11240,
    "👈": 11241,
    "👉": 11242,
    "👊": 11243,
    "👋": 11244,
    "👌": 11245,
    "👍": 11246,
    "👎": 11247,
    "👏": 11248,
    "👐": 11249,
    "👑": 11250,
    "👓": 11251,
    "👔": 11252,
    "👠": 11253,
    "👢": 11254,
    "👣": 11255,
    "👤": 11256,
    "👥": 11257,
    "👦": 11258,
    "👧": 11259,
    "👨": 11260,
    "👩": 11261,
    "👪": 11262,
    "👫": 11263,
    "👮": 11264,
    "👯": 11265,
    "👰": 11266,
    "👱": 11267,
    "👲": 11268,
    "👳": 11269,
    "👴": 11270,
    "👵": 11271,
    "👶": 11272,
    "👷": 11273,
    "👸": 11274,
    "👹": 11275,
    "👺": 11276,
    "👻": 11277,
    "👼": 11278,
    "👽": 11279,
    "👾": 11280,
    "👿": 11281,
    "💀": 11282,
    "💁": 11283,
    "💂": 11284,
    "💃": 11285,
    "💄": 11286,
    "💅": 11287,
    "💉": 11288,
    "💊": 11289,
    "💋": 11290,
    "💌": 11291,
    "💍": 11292,
    "💎": 11293,
    "💏": 11294,
    "💑": 11295,
    "💓": 11296,
    "💔": 11297,
    "💕": 11298,
    "💖": 11299,
    "💗": 11300,
    "💙": 11301,
    "💚": 11302,
    "💛": 11303,
    "💜": 11304,
    "💝": 11305,
    "💞": 11306,
    "💟": 11307,
    "💠": 11308,
    "💡": 11309,
    "💢": 11310,
    "💣": 11311,
    "💤": 11312,
    "💥": 11313,
    "💦": 11314,
    "💧": 11315,
    "💨": 11316,
    "💩": 11317,
    "💪": 11318,
    "💫": 11319,
    "💬": 11320,
    "💭": 11321,
    "💯": 11322,
    "💰": 11323,
    "💱": 11324,
    "💲": 11325,
    "💳": 11326,
    "💴": 11327,
    "💵": 11328,
    "💶": 11329,
    "💷": 11330,
    "💸": 11331,
    "💻": 11332,
    "💼": 11333,
    "💽": 11334,
    "💾": 11335,
    "💿": 11336,
    "📁": 11337,
    "📂": 11338,
    "📃": 11339,
    "📄": 11340,
    "📅": 11341,
    "📆": 11342,
    "📈": 11343,
    "📉": 11344,
    "📊": 11345,
    "📋": 11346,
    "📌": 11347,
    "📍": 11348,
    "📎": 11349,
    "📏": 11350,
    "📐": 11351,
    "📑": 11352,
    "📒": 11353,
    "📓": 11354,
    "📔": 11355,
    "📕": 11356,
    "📖": 11357,
    "📗": 11358,
    "📘": 11359,
    "📙": 11360,
    "📚": 11361,
    "📜": 11362,
    "📝": 11363,
    "📞": 11364,
    "📠": 11365,
    "📡": 11366,
    "📢": 11367,
    "📣": 11368,
    "📤": 11369,
    "📥": 11370,
    "📧": 11371,
    "📨": 11372,
    "📩": 11373,
    "📰": 11374,
    "📱": 11375,
    "📲": 11376,
    "📶": 11377,
    "📷": 11378,
    "📸": 11379,
    "📹": 11380,
    "📺": 11381,
    "🔁": 11382,
    "🔄": 11383,
    "🔈": 11384,
    "🔉": 11385,
    "🔊": 11386,
    "🔋": 11387,
    "🔌": 11388,
    "🔍": 11389,
    "🔎": 11390,
    "🔏": 11391,
    "🔐": 11392,
    "🔑": 11393,
    "🔒": 11394,
    "🔓": 11395,
    "🔔": 11396,
    "🔕": 11397,
    "🔖": 11398,
    "🔗": 11399,
    "🔘": 11400,
    "🔙": 11401,
    "🔚": 11402,
    "🔛": 11403,
    "🔝": 11404,
    "🔟": 11405,
    "🔢": 11406,
    "🔥": 11407,
    "🔦": 11408,
    "🔧": 11409,
    "🔨": 11410,
    "🔩": 11411,
    "🔪": 11412,
    "🔫": 11413,
    "🔬": 11414,
    "🔭": 11415,
    "🔮": 11416,
    "🔰": 11417,
    "🔲": 11418,
    "🔴": 11419,
    "🔵": 11420,
    "🔶": 11421,
    "🔷": 11422,
    "🔸": 11423,
    "🔹": 11424,
    "🔺": 11425,
    "🔼": 11426,
    "🕊": 11427,
    "🕐": 11428,
    "🕑": 11429,
    "🕒": 11430,
    "🕓": 11431,
    "🕔": 11432,
    "🕕": 11433,
    "🕖": 11434,
    "🕗": 11435,
    "🕘": 11436,
    "🕙": 11437,
    "🕚": 11438,
    "🕛": 11439,
    "🕞": 11440,
    "🕡": 11441,
    "🕤": 11442,
    "🕰": 11443,
    "🕵": 11444,
    "🕷": 11445,
    "🕸": 11446,
    "🕹": 11447,
    "🕺": 11448,
    "🖊": 11449,
    "🖌": 11450,
    "🖐": 11451,
    "🖒": 11452,
    "🖤": 11453,
    "🖥": 11454,
    "🖨": 11455,
    "🖩": 11456,
    "🖹": 11457,
    "🖼": 11458,
    "🗂": 11459,
    "🗃": 11460,
    "🗑": 11461,
    "🗒": 11462,
    "🗓": 11463,
    "🗖": 11464,
    "🗜": 11465,
    "🗞": 11466,
    "🗡": 11467,
    "🗣": 11468,
    "🗨": 11469,
    "🗳": 11470,
    "🗺": 11471,
    "🗾": 11472,
    "🗿": 11473,
    "😀": 11474,
    "😁": 11475,
    "😂": 11476,
    "😃": 11477,
    "😄": 11478,
    "😅": 11479,
    "😆": 11480,
    "😇": 11481,
    "😈": 11482,
    "😉": 11483,
    "😊": 11484,
    "😋": 11485,
    "😌": 11486,
    "😍": 11487,
    "😎": 11488,
    "😏": 11489,
    "😐": 11490,
    "😑": 11491,
    "😒": 11492,
    "😓": 11493,
    "😔": 11494,
    "😕": 11495,
    "😖": 11496,
    "😗": 11497,
    "😘": 11498,
    "😙": 11499,
    "😚": 11500,
    "😛": 11501,
    "😜": 11502,
    "😝": 11503,
    "😞": 11504,
    "😟": 11505,
    "😠": 11506,
    "😡": 11507,
    "😢": 11508,
    "😣": 11509,
    "😤": 11510,
    "😥": 11511,
    "😦": 11512,
    "😧": 11513,
    "😨": 11514,
    "😩": 11515,
    "😪": 11516,
    "😫": 11517,
    "😬": 11518,
    "😭": 11519,
    "😮": 11520,
    "😯": 11521,
    "😰": 11522,
    "😱": 11523,
    "😲": 11524,
    "😳": 11525,
    "😴": 11526,
    "😵": 11527,
    "😶": 11528,
    "😷": 11529,
    "😸": 11530,
    "😹": 11531,
    "😺": 11532,
    "😻": 11533,
    "😼": 11534,
    "😽": 11535,
    "😾": 11536,
    "😿": 11537,
    "🙀": 11538,
    "🙁": 11539,
    "🙂": 11540,
    "🙃": 11541,
    "🙄": 11542,
    "🙅": 11543,
    "🙆": 11544,
    "🙈": 11545,
    "🙉": 11546,
    "🙊": 11547,
    "🙋": 11548,
    "🙌": 11549,
    "🙏": 11550,
    "🚀": 11551,
    "🚌": 11552,
    "🚒": 11553,
    "🚕": 11554,
    "🚖": 11555,
    "🚗": 11556,
    "🚘": 11557,
    "🚚": 11558,
    "🚛": 11559,
    "🚜": 11560,
    "🚟": 11561,
    "🚢": 11562,
    "🚦": 11563,
    "🚧": 11564,
    "🚨": 11565,
    "🚩": 11566,
    "🚪": 11567,
    "🚫": 11568,
    "🚭": 11569,
    "🚯": 11570,
    "🚰": 11571,
    "🚴": 11572,
    "🚶": 11573,
    "🚷": 11574,
    "🚹": 11575,
    "🚽": 11576,
    "🚿": 11577,
    "🛁": 11578,
    "🛍": 11579,
    "🛑": 11580,
    "🛒": 11581,
    "🛠": 11582,
    "🛡": 11583,
    "🛰": 11584,
    "🛴": 11585,
    "🜂": 11586,
    "🝔": 11587,
    "🞁": 11588,
    "🞃": 11589,
    "🟊": 11590,
    "🟠": 11591,
    "🟡": 11592,
    "🟢": 11593,
    "🟣": 11594,
    "🟤": 11595,
    "🟥": 11596,
    "🟦": 11597,
    "🟧": 11598,
    "🟨": 11599,
    "🟩": 11600,
    "🟪": 11601,
    "🟰": 11602,
    "🠁": 11603,
    "🠕": 11604,
    "🠗": 11605,
    "🠜": 11606,
    "🤍": 11607,
    "🤏": 11608,
    "🤐": 11609,
    "🤑": 11610,
    "🤒": 11611,
    "🤓": 11612,
    "🤔": 11613,
    "🤕": 11614,
    "🤖": 11615,
    "🤗": 11616,
    "🤘": 11617,
    "🤙": 11618,
    "🤚": 11619,
    "🤝": 11620,
    "🤞": 11621,
    "🤟": 11622,
    "🤠": 11623,
    "🤡": 11624,
    "🤢": 11625,
    "🤣": 11626,
    "🤤": 11627,
    "🤥": 11628,
    "🤦": 11629,
    "🤧": 11630,
    "🤨": 11631,
    "🤩": 11632,
    "🤪": 11633,
    "🤫": 11634,
    "🤬": 11635,
    "🤭": 11636,
    "🤮": 11637,
    "🤯": 11638,
    "🤰": 11639,
    "🤱": 11640,
    "🤴": 11641,
    "🤵": 11642,
    "🤶": 11643,
    "🤷": 11644,
    "🤸": 11645,
    "🤼": 11646,
    "🤿": 11647,
    "🥂": 11648,
    "🥇": 11649,
    "🥈": 11650,
    "🥉": 11651,
    "🥐": 11652,
    "🥓": 11653,
    "🥔": 11654,
    "🥕": 11655,
    "🥖": 11656,
    "🥗": 11657,
    "🥘": 11658,
    "🥙": 11659,
    "🥚": 11660,
    "🥜": 11661,
    "🥞": 11662,
    "🥡": 11663,
    "🥤": 11664,
    "🥦": 11665,
    "🥩": 11666,
    "🥭": 11667,
    "🥰": 11668,
    "🥱": 11669,
    "🥳": 11670,
    "🥴": 11671,
    "🥵": 11672,
    "🥶": 11673,
    "🥺": 11674,
    "🦁": 11675,
    "🦃": 11676,
    "🦄": 11677,
    "🦆": 11678,
    "🦊": 11679,
    "🦋": 11680,
    "🦐": 11681,
    "🦑": 11682,
    "🦔": 11683,
    "🦚": 11684,
    "🦠": 11685,
    "🦢": 11686,
    "🦥": 11687,
    "🦧": 11688,
    "🦯": 11689,
    "🦰": 11690,
    "🦱": 11691,
    "🦲": 11692,
    "🦳": 11693,
    "🦴": 11694,
    "🦷": 11695,
    "🦸": 11696,
    "🦹": 11697,
    "🦺": 11698,
    "🧀": 11699,
    "🧂": 11700,
    "🧋": 11701,
    "🧍": 11702,
    "🧐": 11703,
    "🧑": 11704,
    "🧒": 11705,
    "🧓": 11706,
    "🧔": 11707,
    "🧕": 11708,
    "🧗": 11709,
    "🧘": 11710,
    "🧚": 11711,
    "🧟": 11712,
    "🧠": 11713,
    "🧡": 11714,
    "🧤": 11715,
    "🧥": 11716,
    "🧩": 11717,
    "🧪": 11718,
    "🧬": 11719,
    "🧭": 11720,
    "🧮": 11721,
    "🧱": 11722,
    "🧲": 11723,
    "🧳": 11724,
    "🧵": 11725,
    "🧶": 11726,
    "🧽": 11727,
    "🧿": 11728,
    "🩸": 11729,
    "🩺": 11730,
    "🪄": 11731,
    "🪐": 11732,
    "🪓": 11733,
    "🪙": 11734,
    "🪚": 11735,
    "🪧": 11736,
    "🪨": 11737,
    "🪰": 11738,
    "🪱": 11739,
    "🪴": 11740,
    "🪵": 11741,
    "🫂": 11742,
    "🫙": 11743,
    "🫚": 11744,
    "🫢": 11745,
    "🫥": 11746,
    "🵋": 11747,
    "𠘨": 11748,
    "𠵿": 11749,
    "𢆳": 11750,
    "𨂾": 11751,
    "󫎾": 11752,
    "󰇛": 11753,
    "󰇜": 11754,
    "􀀀": 11755,
    "􏰀": 11756,
    "􏰁": 11757,
    "􏰂": 11758,
    "􏰃": 11759,
    "􏰄": 11760,
    "􏰆": 11761,
    "􏰉": 11762,
    "􏰊": 11763,
    "􏰋": 11764,
    "􏰌": 11765,
    "􏰒": 11766,
    "  ": 11767,
    "th": 11768,
    "    ": 11769,
    "in": 11770,
    "er": 11771,
    "the": 11772,
    "on": 11773,
    "an": 11774,
    "re": 11775,
    "at": 11776,
    "or": 11777,
    "en": 11778,
    "st": 11779,
    "al": 11780,
    "is": 11781,
    "es": 11782,
    "        ": 11783,
    "le": 11784,
    "se": 11785,
    "it": 11786,
    "ou": 11787,
    "ar": 11788,
    "of": 11789,
    "to": 11790,
    "ing": 11791,
    "ion": 11792,
    "and": 11793,
    "ed": 11794,
    "ro": 11795,
    "ac": 11796,
    "ic": 11797,
    "as": 11798,
    "me": 11799,
    "de": 11800,
    "ent": 11801,
    "ut": 11802,
    "be": 11803,
    "co": 11804,
    "mp": 11805,
    "he": 11806,
    "ve": 11807,
    "for": 11808,
    "ct": 11809,
    "lo": 11810,
    "ly": 11811,
    "ge": 11812,
    "um": 11813,
    "ch": 11814,
    "il": 11815,
    "ig": 11816,
    "con": 11817,
    "ce": 11818,
    "ex": 11819,
    "are": 11820,
    "ay": 11821,
    "that": 11822,
    "ter": 11823,
    "pro": 11824,
    "qu": 11825,
    "ation": 11826,
    "if": 11827,
    "no": 11828,
    "po": 11829,
    "ir": 11830,
    "te": 11831,
    "ul": 11832,
    "so": 11833,
    "ra": 11834,
    "wh": 11835,
    "ver": 11836,
    "ur": 11837,
    "id": 11838,
    "The": 11839,
    "im": 11840,
    "un": 11841,
    "ad": 11842,
    "mo": 11843,
    "ith": 11844,
    "ab": 11845,
    "res": 11846,
    "ma": 11847,
    "ne": 11848,
    "su": 11849,
    "00": 11850,
    "you": 11851,
    "we": 11852,
    "ate": 11853,
    "pe": 11854,
    "ere": 11855,
    "with": 11856,
    "ber": 11857,
    "lf": 11858,
    "ts": 11859,
    "ist": 11860,
    "per": 11861,
    "can": 11862,
    "rom": 11863,
    "ha": 11864,
    "ri": 11865,
    "pl": 11866,
    "num": 11867,
    "put": 11868,
    "all": 11869,
    "self": 11870,
    "ke": 11871,
    "ol": 11872,
    "us": 11873,
    "ach": 11874,
    "from": 11875,
    "ort": 11876,
    "imp": 11877,
    "out": 11878,
    "igh": 11879,
    "number": 11880,
    "ta": 11881,
    "iv": 11882,
    "by": 11883,
    "act": 11884,
    "ment": 11885,
    "ame": 11886,
    "one": 11887,
    "ow": 11888,
    "            ": 11889,
    "ld": 11890,
    "ble": 11891,
    "ive": 11892,
    "int": 11893,
    "ine": 11894,
    "ap": 11895,
    "ti": 11896,
    "In": 11897,
    "ess": 11898,
    "Th": 11899,
    "str": 11900,
    "tr": 11901,
    "cl": 11902,
    "this": 11903,
    "et": 11904,
    "ue": 11905,
    "oun": 11906,
    "ers": 11907,
    "not": 11908,
    "ight": 11909,
    "par": 11910,
    "sh": 11911,
    "ions": 11912,
    "val": 11913,
    "ind": 11914,
    "ill": 11915,
    "__": 11916,
    "..": 11917,
    "import": 11918,
    "am": 11919,
    "si": 11920,
    "10": 11921,
    "pa": 11922,
    "def": 11923,
    "use": 11924,
    "ity": 11925,
    "do": 11926,
    "ass": 11927,
    "                ": 11928,
    "form": 11929,
    "each": 11930,
    "but": 11931,
    "der": 11932,
    "ase": 11933,
    "our": 11934,
    "ther": 11935,
    "have": 11936,
    "low": 11937,
    "amp": 11938,
    "op": 11939,
    "li": 11940,
    "end": 11941,
    "pr": 11942,
    "ould": 11943,
    "gra": 11944,
    "ang": 11945,
    "bo": 11946,
    "ans": 11947,
    "pos": 11948,
    "comp": 11949,
    "age": 11950,
    "ll": 11951,
    "wor": 11952,
    "ust": 11953,
    "ction": 11954,
    "any": 11955,
    "ial": 11956,
    "irst": 11957,
    "up": 11958,
    "com": 11959,
    "ag": 11960,
    "ich": 11961,
    "ty": 11962,
    "urn": 11963,
    "tw": 11964,
    "get": 11965,
    "ies": 11966,
    "So": 11967,
    "est": 11968,
    "od": 11969,
    "its": 11970,
    "which": 11971,
    "ret": 11972,
    "ste": 11973,
    "blem": 11974,
    "di": 11975,
    "ure": 11976,
    "dat": 11977,
    "able": 11978,
    "ext": 11979,
    "has": 11980,
    "20": 11981,
    "om": 11982,
    "will": 11983,
    "line": 11984,
    "first": 11985,
    "two": 11986,
    "du": 11987,
    "ite": 11988,
    "ence": 11989,
    "ant": 11990,
    "ile": 11991,
    "problem": 11992,
    "ie": 11993,
    "ps": 11994,
    "ard": 11995,
    "ect": 11996,
    "set": 11997,
    "ck": 11998,
    "\r\n": 11999,
    "ample": 12000,
    "fer": 12001,
    "iz": 12002,
    "equ": 12003,
    "ack": 12004,
    "min": 12005,
    "ph": 12006,
    "ical": 12007,
    "time": 12008,
    "test": 12009,
    "el": 12010,
    "need": 12011,
    "teg": 12012,
    "ait": 12013,
    "ations": 12014,
    "mat": 12015,
    "your": 12016,
    "ink": 12017,
    "tain": 12018,
    "go": 12019,
    "0.": 12020,
    "return": 12021,
    "pres": 12022,
    "art": 12023,
    "ated": 12024,
    "pt": 12025,
    "ance": 12026,
    "==": 12027,
    "ition": 12028,
    "ree": 12029,
    "integ": 12030,
    "name": 12031,
    "cre": 12032,
    "sub": 12033,
    "os": 12034,
    "ace": 12035,
    "cal": 12036,
    "1.": 12037,
    "some": 12038,
    "other": 12039,
    "may": 12040,
    "then": 12041,
    "ast": 12042,
    "les": 12043,
    "path": 12044,
    "pre": 12045,
    "fo": 12046,
    "way": 12047,
    "ound": 12048,
    "ms": 12049,
    "12": 12050,
    "...": 12051,
    "fr": 12052,
    "data": 12053,
    "where": 12054,
    "fun": 12055,
    "right": 12056,
    "giv": 12057,
    "ud": 12058,
    "cur": 12059,
    "ult": 12060,
    "sol": 12061,
    "gh": 12062,
    "cor": 12063,
    "ot": 12064,
    "len": 12065,
    "Wait": 12066,
    "ser": 12067,
    "bet": 12068,
    "there": 12069,
    "For": 12070,
    "log": 12071,
    "ents": 12072,
    "output": 12073,
    "add": 12074,
    "dif": 12075,
    "col": 12076,
    "cond": 12077,
    "ob": 12078,
    "ff": 12079,
    "rou": 12080,
    "inter": 12081,
    "their": 12082,
    "ors": 12083,
    "sy": 12084,
    "how": 12085,
    "del": 12086,
    "This": 12087,
    "ca": 12088,
    "   ": 12089,
    "ary": 12090,
    "input": 12091,
    "Let": 12092,
    "must": 12093,
    "wer": 12094,
    "dis": 12095,
    "ice": 12096,
    "Wh": 12097,
    "cont": 12098,
    "work": 12099,
    "ong": 12100,
    "code": 12101,
    "find": 12102,
    "11": 12103,
    "gram": 12104,
    "ally": 12105,
    "now": 12106,
    "value": 12107,
    "ren": 12108,
    "they": 12109,
    "when": 12110,
    "cess": 12111,
    "coun": 12112,
    "arg": 12113,
    "think": 12114,
    "des": 12115,
    "ens": 12116,
    "ign": 12117,
    "sum": 12118,
    "such": 12119,
    "ative": 12120,
    "string": 12121,
    "rect": 12122,
    "more": 12123,
    "If": 12124,
    "let": 12125,
    "requ": 12126,
    "ev": 12127,
    "print": 12128,
    "Ex": 12129,
    "list": 12130,
    "ide": 12131,
    "ok": 12132,
    "sible": 12133,
    "ele": 12134,
    "ces": 12135,
    "spe": 12136,
    "given": 12137,
    "ous": 12138,
    "dist": 12139,
    "ener": 12140,
    "like": 12141,
    "example": 12142,
    "comm": 12143,
    "row": 12144,
    "sp": 12145,
    "arr": 12146,
    "fol": 12147,
    "numbers": 12148,
    "ject": 12149,
    "red": 12150,
    "fe": 12151,
    "differ": 12152,
    "ari": 12153,
    "ters": 12154,
    "ween": 12155,
    "ints": 12156,
    "ict": 12157,
    "than": 12158,
    "would": 12159,
    "ange": 12160,
    "gth": 12161,
    "2.": 12162,
    "ose": 12163,
    "ci": 12164,
    "between": 12165,
    "ments": 12166,
    "contain": 12167,
    "ft": 12168,
    "pon": 12169,
    "only": 12170,
    "py": 12171,
    "ear": 12172,
    "tic": 12173,
    "very": 12174,
    "\t\t": 12175,
    "class": 12176,
    "over": 12177,
    "ince": 12178,
    "100": 12179,
    "ates": 12180,
    "play": 12181,
    "program": 12182,
    "possible": 12183,
    "It": 12184,
    "own": 12185,
    "sion": 12186,
    "An": 12187,
    "char": 12188,
    "was": 12189,
    "should": 12190,
    "max": 12191,
    "new": 12192,
    "ain": 12193,
    "follow": 12194,
    "model": 12195,
    "also": 12196,
    "av": 12197,
    "Out": 12198,
    "cause": 12199,
    "length": 12200,
    "read": 12201,
    "them": 12202,
    "into": 12203,
    "Al": 12204,
    "15": 12205,
    "function": 12206,
    "tim": 12207,
    "same": 12208,
    "ask": 12209,
    "key": 12210,
    "tra": 12211,
    "frac": 12212,
    "Tr": 12213,
    "cul": 12214,
    "cent": 12215,
    "wr": 12216,
    "about": 12217,
    "cho": 12218,
    "point": 12219,
    "ise": 12220,
    "order": 12221,
    "cons": 12222,
    "16": 12223,
    "ild": 12224,
    "che": 12225,
    "tal": 12226,
    "Input": 12227,
    "Output": 12228,
    "fig": 12229,
    "You": 12230,
    "type": 12231,
    "left": 12232,
    "file": 12233,
    "Con": 12234,
    "ze": 12235,
    "ulti": 12236,
    "_i": 12237,
    "stand": 12238,
    "sequ": 12239,
    "Re": 12240,
    "hel": 12241,
    "see": 12242,
    "start": 12243,
    "sing": 12244,
    "under": 12245,
    "pp": 12246,
    "25": 12247,
    "ub": 12248,
    "div": 12249,
    "tern": 12250,
    "app": 12251,
    "know": 12252,
    "using": 12253,
    "ays": 12254,
    "count": 12255,
    "ating": 12256,
    "ory": 12257,
    "ute": 12258,
    "la": 12259,
    "second": 12260,
    "cri": 12261,
    "19": 12262,
    "base": 12263,
    "13": 12264,
    "led": 12265,
    "But": 12266,
    "ines": 12267,
    "ip": 12268,
    "St": 12269,
    "points": 12270,
    "valu": 12271,
    "We": 12272,
    "14": 12273,
    "ds": 12274,
    "cept": 12275,
    "bu": 12276,
    "18": 12277,
    "different": 12278,
    "ater": 12279,
    "these": 12280,
    "charac": 12281,
    "ho": 12282,
    "None": 12283,
    "cy": 12284,
    "ick": 12285,
    "thing": 12286,
    "main": 12287,
    "stru": 12288,
    "af": 12289,
    "ility": 12290,
    "cle": 12291,
    "init": 12292,
    "incl": 12293,
    "mm": 12294,
    "tri": 12295,
    "ution": 12296,
    "reg": 12297,
    "pri": 12298,
    "cted": 12299,
    "vari": 12300,
    "3.": 12301,
    "fore": 12302,
    "vi": 12303,
    "multi": 12304,
    "quare": 12305,
    "equal": 12306,
    "answer": 12307,
    "produ": 12308,
    "fact": 12309,
    "maybe": 12310,
    "->": 12311,
    "graph": 12312,
    "part": 12313,
    "what": 12314,
    "**": 12315,
    "gener": 12316,
    "used": 12317,
    "present": 12318,
    "vel": 12319,
    "here": 12320,
    "ful": 12321,
    "ges": 12322,
    "ator": 12323,
    "ish": 12324,
    "gr": 12325,
    "ield": 12326,
    "text": 12327,
    "No": 12328,
    "integers": 12329,
    "ific": 12330,
    "size": 12331,
    "fil": 12332,
    "ider": 12333,
    "ting": 12334,
    "integer": 12335,
    "Pro": 12336,
    "rel": 12337,
    "try": 12338,
    "son": 12339,
    "spec": 12340,
    "br": 12341,
    "trans": 12342,
    "ix": 12343,
    "ert": 12344,
    "eff": 12345,
    "square": 12346,
    "make": 12347,
    "ving": 12348,
    "rough": 12349,
    "ning": 12350,
    "ding": 12351,
    "imum": 12352,
    "sed": 12353,
    "does": 12354,
    "_d": 12355,
    "array": 12356,
    "ics": 12357,
    "ities": 12358,
    "De": 12359,
    "sm": 12360,
    "appro": 12361,
    "ient": 12362,
    "image": 12363,
    "help": 12364,
    "000": 12365,
    "requi": 12366,
    "bin": 12367,
    "fin": 12368,
    "Ch": 12369,
    "case": 12370,
    "ak": 12371,
    "17": 12372,
    "plan": 12373,
    "exact": 12374,
    "ss": 12375,
    "curren": 12376,
    "result": 12377,
    "step": 12378,
    "many": 12379,
    "fl": 12380,
    "Hmm": 12381,
    "vert": 12382,
    "total": 12383,
    "au": 12384,
    "dig": 12385,
    "True": 12386,
    "angle": 12387,
    "cr": 12388,
    "man": 12389,
    "ror": 12390,
    "most": 12391,
    "sequence": 12392,
    "state": 12393,
    "less": 12394,
    "cell": 12395,
    "posit": 12396,
    "ular": 12397,
    "stud": 12398,
    "times": 12399,
    "inde": 12400,
    "math": 12401,
    "move": 12402,
    "oper": 12403,
    "ual": 12404,
    "24": 12405,
    "every": 12406,
    "ins": 12407,
    "imal": 12408,
    "gre": 12409,
    "calcul": 12410,
    "pair": 12411,
    "just": 12412,
    "bab": 12413,
    "ten": 12414,
    "conne": 12415,
    "allen": 12416,
    "angu": 12417,
    "There": 12418,
    "sa": 12419,
    "through": 12420,
    "contains": 12421,
    "ord": 12422,
    "OR": 12423,
    "quest": 12424,
    "process": 12425,
    "since": 12426,
    "following": 12427,
    "//": 12428,
    "after": 12429,
    "check": 12430,
    "port": 12431,
    "term": 12432,
    "np": 12433,
    "values": 12434,
    "ctions": 12435,
    "user": 12436,
    "ep": 12437,
    "What": 12438,
    "ves": 12439,
    "get_": 12440,
    "____": 12441,
    "mon": 12442,
    "run": 12443,
    "ases": 12444,
    "                    ": 12445,
    "respon": 12446,
    "iew": 12447,
    "even": 12448,
    "three": 12449,
    "IN": 12450,
    "vol": 12451,
    "30": 12452,
    "lines": 12453,
    "syste": 12454,
    "because": 12455,
    "exactly": 12456,
    "Co": 12457,
    "my": 12458,
    "sure": 12459,
    "thod": 12460,
    "To": 12461,
    "langu": 12462,
    "cir": 12463,
    "assert": 12464,
    "both": 12465,
    "Un": 12466,
    "action": 12467,
    "_s": 12468,
    "next": 12469,
    "zer": 12470,
    "args": 12471,
    "back": 12472,
    "50": 12473,
    "prov": 12474,
    "long": 12475,
    "ax": 12476,
    "ough": 12477,
    "year": 12478,
    "clo": 12479,
    "non": 12480,
    "consider": 12481,
    "alse": 12482,
    "ize": 12483,
    "arch": 12484,
    "tt": 12485,
    "grou": 12486,
    "amples": 12487,
    "day": 12488,
    "king": 12489,
    "ER": 12490,
    "valid": 12491,
    "mar": 12492,
    "lic": 12493,
    "object": 12494,
    "plic": 12495,
    "bit": 12496,
    "ways": 12497,
    "current": 12498,
    "struct": 12499,
    "ribut": 12500,
    "ple": 12501,
    "represent": 12502,
    "who": 12503,
    "bl": 12504,
    "igin": 12505,
    "probab": 12506,
    "_id": 12507,
    "Mo": 12508,
    "prime": 12509,
    "ource": 12510,
    "oc": 12511,
    "ied": 12512,
    "format": 12513,
    "4.": 12514,
    "load": 12515,
    "den": 12516,
    "dec": 12517,
    "lar": 12518,
    "velo": 12519,
    "method": 12520,
    "AT": 12521,
    "Be": 12522,
    "take": 12523,
    "quer": 12524,
    "emp": 12525,
    "poly": 12526,
    "dy": 12527,
    "side": 12528,
    "else": 12529,
    "allow": 12530,
    "range": 12531,
    "a_": 12532,
    "pend": 12533,
    "ages": 12534,
    "ath": 12535,
    "allenge": 12536,
    "cript": 12537,
    "mis": 12538,
    "ices": 12539,
    "place": 12540,
    "_name": 12541,
    "inst": 12542,
    "ON": 12543,
    "down": 12544,
    "const": 12545,
    "22": 12546,
    "ST": 12547,
    "ys": 12548,
    "config": 12549,
    "temp": 12550,
    "ia": 12551,
    "haps": 12552,
    "ved": 12553,
    "99": 12554,
    "direct": 12555,
    "hand": 12556,
    "sign": 12557,
    "look": 12558,
    "those": 12559,
    "ced": 12560,
    "tree": 12561,
    "high": 12562,
    "simp": 12563,
    "que": 12564,
    "Then": 12565,
    "single": 12566,
    "cer": 12567,
    "ures": 12568,
    "pat": 12569,
    "Each": 12570,
    "index": 12571,
    "understand": 12572,
    "En": 12573,
    "ks": 12574,
    "vers": 12575,
    "rand": 12576,
    "mod": 12577,
    "As": 12578,
    "could": 12579,
    "ists": 12580,
    "edges": 12581,
    "How": 12582,
    "perhaps": 12583,
    "proper": 12584,
    "med": 12585,
    "alth": 12586,
    "First": 12587,
    "space": 12588,
    "gy": 12589,
    "date": 12590,
    "ential": 12591,
    "word": 12592,
    "position": 12593,
    "umn": 12594,
    "200": 12595,
    "says": 12596,
    "Ok": 12597,
    "ense": 12598,
    "sq": 12599,
    "blo": 12600,
    "gu": 12601,
    "lot": 12602,
    "approach": 12603,
    "kes": 12604,
    "ude": 12605,
    "ward": 12606,
    "peri": 12607,
    "show": 12608,
    "rix": 12609,
    "mb": 12610,
    "lim": 12611,
    "ither": 12612,
    "write": 12613,
    "uring": 12614,
    "da": 12615,
    "origin": 12616,
    "pi": 12617,
    "might": 12618,
    "pass": 12619,
    "ically": 12620,
    "iter": 12621,
    "False": 12622,
    "incre": 12623,
    "23": 12624,
    "task": 12625,
    "core": 12626,
    "Ho": 12627,
    "stat": 12628,
    "ides": 12629,
    "atively": 12630,
    "sha": 12631,
    "comple": 12632,
    "bel": 12633,
    "Okay": 12634,
    "cial": 12635,
    "correct": 12636,
    "ordin": 12637,
    "mem": 12638,
    "defin": 12639,
    "includ": 12640,
    "expres": 12641,
    "_1": 12642,
    "solve": 12643,
    "40": 12644,
    "distance": 12645,
    "Since": 12646,
    "dict": 12647,
    "ople": 12648,
    "elements": 12649,
    "      ": 12650,
    "level": 12651,
    "mean": 12652,
    "top": 12653,
    "product": 12654,
    "vis": 12655,
    "equation": 12656,
    "language": 12657,
    "ress": 12658,
    "nor": 12659,
    "ars": 12660,
    "view": 12661,
    "rt": 12662,
    "come": 12663,
    "were": 12664,
    "child": 12665,
    "edge": 12666,
    "5.": 12667,
    "system": 12668,
    "pes": 12669,
    "ils": 12670,
    "mal": 12671,
    "uni": 12672,
    "raw": 12673,
    "maximum": 12674,
    "create": 12675,
    "lear": 12676,
    "ument": 12677,
    "off": 12678,
    "been": 12679,
    "field": 12680,
    "jo": 12681,
    "matrix": 12682,
    "last": 12683,
    "node": 12684,
    "solution": 12685,
    "32": 12686,
    "except": 12687,
    "least": 12688,
    "character": 12689,
    "divis": 12690,
    "his": 12691,
    "positive": 12692,
    "60": 12693,
    "lif": 12694,
    "als": 12695,
    "pect": 12696,
    "again": 12697,
    "characters": 12698,
    "large": 12699,
    "hol": 12700,
    "aren": 12701,
    "ided": 12702,
    "opt": 12703,
    "zero": 12704,
    "io": 12705,
    "0000": 12706,
    "env": 12707,
    "area": 12708,
    "mer": 12709,
    "train": 12710,
    "compute": 12711,
    "thon": 12712,
    "AN": 12713,
    "Altern": 12714,
    "call": 12715,
    "ences": 12716,
    "either": 12717,
    "effic": 12718,
    "people": 12719,
    "ational": 12720,
    "     ": 12721,
    "formul": 12722,
    "well": 12723,
    "flo": 12724,
    "ore": 12725,
    "sur": 12726,
    "root": 12727,
    "AS": 12728,
    "cut": 12729,
    "33": 12730,
    "question": 12731,
    "ually": 12732,
    "random": 12733,
    "based": 12734,
    "ire": 12735,
    "gin": 12736,
    "column": 12737,
    "sk": 12738,
    "ants": 12739,
    "ry": 12740,
    "game": 12741,
    "group": 12742,
    "test_": 12743,
    "color": 12744,
    "url": 12745,
    "version": 12746,
    "Se": 12747,
    "terms": 12748,
    "Test": 12749,
    "Or": 12750,
    "change": 12751,
    "Po": 12752,
    "power": 12753,
    "wever": 12754,
    "small": 12755,
    "search": 12756,
    "RE": 12757,
    "ctor": 12758,
    "Alternatively": 12759,
    "formation": 12760,
    "Pr": 12761,
    "net": 12762,
    "tre": 12763,
    "ner": 12764,
    "head": 12765,
    "ger": 12766,
    "request": 12767,
    "don": 12768,
    "ident": 12769,
    "being": 12770,
    "while": 12771,
    "means": 12772,
    "Lo": 12773,
    "without": 12774,
    "28": 12775,
    "gen": 12776,
    "water": 12777,
    "mu": 12778,
    "ault": 12779,
    "ature": 12780,
    "Ad": 12781,
    "Sol": 12782,
    "exp": 12783,
    "mut": 12784,
    "post": 12785,
    "writ": 12786,
    "element": 12787,
    "cap": 12788,
    "ional": 12789,
    "coordin": 12790,
    "label": 12791,
    "27": 12792,
    "64": 12793,
    "sqrt": 12794,
    "real": 12795,
    "display": 12796,
    "bre": 12797,
    "He": 12798,
    "_2": 12799,
    "open": 12800,
    "htt": 12801,
    "want": 12802,
    "sim": 12803,
    "ules": 12804,
    "build": 12805,
    "common": 12806,
    "car": 12807,
    "Le": 12808,
    "6.": 12809,
    "command": 12810,
    "she": 12811,
    "initial": 12812,
    "atch": 12813,
    "ings": 12814,
    "ables": 12815,
    "land": 12816,
    "ME": 12817,
    "abo": 12818,
    "sty": 12819,
    "21": 12820,
    "wise": 12821,
    "qual": 12822,
    "four": 12823,
    "ons": 12824,
    "AB": 12825,
    "query": 12826,
    "health": 12827,
    "another": 12828,
    "match": 12829,
    "ken": 12830,
    "45": 12831,
    "att": 12832,
    "nam": 12833,
    "7.": 12834,
    "before": 12835,
    "vice": 12836,
    "alle": 12837,
    "models": 12838,
    "Your": 12839,
    "above": 12840,
    "ket": 12841,
    "gor": 12842,
    "choose": 12843,
    "lect": 12844,
    "param": 12845,
    "When": 12846,
    "Note": 12847,
    "Er": 12848,
    "probability": 12849,
    "tes": 12850,
    "spl": 12851,
    "loc": 12852,
    "found": 12853,
    "eas": 12854,
    "meas": 12855,
    "s_": 12856,
    "aces": 12857,
    "sample": 12858,
    "itions": 12859,
    "formula": 12860,
    "vent": 12861,
    "bal": 12862,
    "neg": 12863,
    "verse": 12864,
    "tices": 12865,
    "org": 12866,
    "Ar": 12867,
    "turn": 12868,
    "road": 12869,
    "cases": 12870,
    "partic": 12871,
    "original": 12872,
    "velop": 12873,
    "ilar": 12874,
    "comes": 12875,
    "ail": 12876,
    "source": 12877,
    "face": 12878,
    "steps": 12879,
    "redu": 12880,
    "ults": 12881,
    "fix": 12882,
    "challenge": 12883,
    "IT": 12884,
    "vertices": 12885,
    "air": 12886,
    "ian": 12887,
    "sin": 12888,
    "words": 12889,
    "lead": 12890,
    "digit": 12891,
    "And": 12892,
    "lay": 12893,
    "ify": 12894,
    "                        ": 12895,
    "supp": 12896,
    "block": 12897,
    "style": 12898,
    "AR": 12899,
    "table": 12900,
    "ese": 12901,
    "ized": 12902,
    "students": 12903,
    "append": 12904,
    "ump": 12905,
    "factor": 12906,
    "Res": 12907,
    "DE": 12908,
    "LE": 12909,
    "known": 12910,
    "ross": 12911,
    "ily": 12912,
    "digits": 12913,
    "SE": 12914,
    "Py": 12915,
    "default": 12916,
    "her": 12917,
    "x_": 12918,
    "On": 12919,
    "ible": 12920,
    "grid": 12921,
    "cos": 12922,
    "termin": 12923,
    "vious": 12924,
    "bot": 12925,
    "rection": 12926,
    "json": 12927,
    "distribut": 12928,
    "Error": 12929,
    "til": 12930,
    "ler": 12931,
    "That": 12932,
    "cost": 12933,
    "80": 12934,
    "ount": 12935,
    "ural": 12936,
    "bra": 12937,
    "90": 12938,
    "error": 12939,
    "tar": 12940,
    "mess": 12941,
    "ef": 12942,
    "called": 12943,
    "ata": 12944,
    "prim": 12945,
    "However": 12946,
    "flow": 12947,
    "cm": 12948,
    "required": 12949,
    "cu": 12950,
    "iron": 12951,
    "lish": 12952,
    "36": 12953,
    "split": 12954,
    "OO": 12955,
    "contin": 12956,
    "35": 12957,
    "direction": 12958,
    "ome": 12959,
    "ols": 12960,
    "Ne": 12961,
    "ank": 12962,
    "city": 12963,
    "tor": 12964,
    "ier": 12965,
    "26": 12966,
    "comput": 12967,
    "fra": 12968,
    "develop": 12969,
    "hy": 12970,
    "permut": 12971,
    "chang": 12972,
    "ename": 12973,
    "tech": 12974,
    "_path": 12975,
    "uses": 12976,
[...]
